
#ifndef SINE_MODEL_H
#define SINE_MODEL_H

const unsigned int sine_model_len = 4320;

const unsigned char sine_model[4320] = {
    0x1c, 0x00, 0x00, 0x00, 0x54, 0x46, 0x4c, 0x33,
    0x14, 0x00, 0x20, 0x00, 0x1c, 0x00, 0x18, 0x00,
    0x14, 0x00, 0x10, 0x00, 0x0c, 0x00, 0x00, 0x00,
    0x08, 0x00, 0x04, 0x00, 0x14, 0x00, 0x00, 0x00,
    0x1c, 0x00, 0x00, 0x00, 0x98, 0x00, 0x00, 0x00,
    0xf0, 0x00, 0x00, 0x00, 0x94, 0x0b, 0x00, 0x00,
    0xa4, 0x0b, 0x00, 0x00, 0x8c, 0x10, 0x00, 0x00,
    0x03, 0x00, 0x00, 0x00, 0x01, 0x00, 0x00, 0x00,
    0x10, 0x00, 0x00, 0x00, 0x00, 0x00, 0x0a, 0x00,
    0x10, 0x00, 0x0c, 0x00, 0x08, 0x00, 0x04, 0x00,
    0x0a, 0x00, 0x00, 0x00, 0x0c, 0x00, 0x00, 0x00,
    0x1c, 0x00, 0x00, 0x00, 0x3c, 0x00, 0x00, 0x00,
    0x0f, 0x00, 0x00, 0x00, 0x73, 0x65, 0x72, 0x76,
    0x69, 0x6e, 0x67, 0x5f, 0x64, 0x65, 0x66, 0x61,
    0x75, 0x6c, 0x74, 0x00, 0x01, 0x00, 0x00, 0x00,
    0x04, 0x00, 0x00, 0x00, 0x90, 0xff, 0xff, 0xff,
    0x09, 0x00, 0x00, 0x00, 0x04, 0x00, 0x00, 0x00,
    0x08, 0x00, 0x00, 0x00, 0x6f, 0x75, 0x74, 0x70,
    0x75, 0x74, 0x5f, 0x30, 0x00, 0x00, 0x00, 0x00,
    0x01, 0x00, 0x00, 0x00, 0x04, 0x00, 0x00, 0x00,
    0x3a, 0xf5, 0xff, 0xff, 0x04, 0x00, 0x00, 0x00,
    0x0c, 0x00, 0x00, 0x00, 0x6b, 0x65, 0x72, 0x61,
    0x73, 0x5f, 0x74, 0x65, 0x6e, 0x73, 0x6f, 0x72,
    0x00, 0x00, 0x00, 0x00, 0x02, 0x00, 0x00, 0x00,
    0x34, 0x00, 0x00, 0x00, 0x04, 0x00, 0x00, 0x00,
    0xdc, 0xff, 0xff, 0xff, 0x0c, 0x00, 0x00, 0x00,
    0x04, 0x00, 0x00, 0x00, 0x13, 0x00, 0x00, 0x00,
    0x43, 0x4f, 0x4e, 0x56, 0x45, 0x52, 0x53, 0x49,
    0x4f, 0x4e, 0x5f, 0x4d, 0x45, 0x54, 0x41, 0x44,
    0x41, 0x54, 0x41, 0x00, 0x08, 0x00, 0x0c, 0x00,
    0x08, 0x00, 0x04, 0x00, 0x08, 0x00, 0x00, 0x00,
    0x0b, 0x00, 0x00, 0x00, 0x04, 0x00, 0x00, 0x00,
    0x13, 0x00, 0x00, 0x00, 0x6d, 0x69, 0x6e, 0x5f,
    0x72, 0x75, 0x6e, 0x74, 0x69, 0x6d, 0x65, 0x5f,
    0x76, 0x65, 0x72, 0x73, 0x69, 0x6f, 0x6e, 0x00,
    0x0d, 0x00, 0x00, 0x00, 0xa0, 0x0a, 0x00, 0x00,
    0x98, 0x0a, 0x00, 0x00, 0x48, 0x0a, 0x00, 0x00,
    0x30, 0x02, 0x00, 0x00, 0x1c, 0x02, 0x00, 0x00,
    0xcc, 0x01, 0x00, 0x00, 0x3c, 0x01, 0x00, 0x00,
    0xac, 0x00, 0x00, 0x00, 0xa4, 0x00, 0x00, 0x00,
    0x9c, 0x00, 0x00, 0x00, 0x94, 0x00, 0x00, 0x00,
    0x74, 0x00, 0x00, 0x00, 0x04, 0x00, 0x00, 0x00,
    0xea, 0xf5, 0xff, 0xff, 0x04, 0x00, 0x00, 0x00,
    0x60, 0x00, 0x00, 0x00, 0x0c, 0x00, 0x00, 0x00,
    0x08, 0x00, 0x0e, 0x00, 0x08, 0x00, 0x04, 0x00,
    0x08, 0x00, 0x00, 0x00, 0x10, 0x00, 0x00, 0x00,
    0x28, 0x00, 0x00, 0x00, 0x00, 0x00, 0x06, 0x00,
    0x08, 0x00, 0x04, 0x00, 0x06, 0x00, 0x00, 0x00,
    0x04, 0x00, 0x00, 0x00, 0x01, 0x00, 0x00, 0x00,
    0xea, 0x03, 0x00, 0x00, 0x0c, 0x00, 0x18, 0x00,
    0x14, 0x00, 0x10, 0x00, 0x0c, 0x00, 0x04, 0x00,
    0x0c, 0x00, 0x00, 0x00, 0xb2, 0xb4, 0xad, 0xd5,
    0xa0, 0x99, 0xac, 0xf9, 0x02, 0x00, 0x00, 0x00,
    0x02, 0x00, 0x00, 0x00, 0x04, 0x00, 0x00, 0x00,
    0x06, 0x00, 0x00, 0x00, 0x32, 0x2e, 0x31, 0x39,
    0x2e, 0x30, 0x00, 0x00, 0x56, 0xf6, 0xff, 0xff,
    0x04, 0x00, 0x00, 0x00, 0x10, 0x00, 0x00, 0x00,
    0x31, 0x2e, 0x35, 0x2e, 0x30, 0x00, 0x00, 0x00,
    0x00, 0x00, 0x00, 0x00, 0x00, 0x00, 0x00, 0x00,
    0x50, 0xf1, 0xff, 0xff, 0x54, 0xf1, 0xff, 0xff,
    0x58, 0xf1, 0xff, 0xff, 0x7e, 0xf6, 0xff, 0xff,
    0x04, 0x00, 0x00, 0x00, 0x80, 0x00, 0x00, 0x00,
    0x6e, 0xce, 0x74, 0x3e, 0x0f, 0x3d, 0xd4, 0xbe,
    0xdb, 0xea, 0x5d, 0x3e, 0x6c, 0x20, 0xcb, 0x3e,
    0x6e, 0xc3, 0x93, 0x3d, 0x9c, 0x8c, 0xd6, 0x3d,
    0x40, 0xf4, 0x0d, 0xbe, 0x29, 0x56, 0x92, 0x3e,
    0x00, 0x4c, 0x4f, 0xbd, 0x60, 0xbd, 0xd3, 0xbe,
    0xc0, 0x1f, 0x1d, 0xbc, 0x7d, 0x3d, 0xc9, 0xbe,
    0x82, 0xd8, 0xd6, 0x3d, 0xd3, 0x34, 0x7a, 0xbe,
    0xcf, 0x1c, 0xc1, 0xbe, 0x20, 0xa8, 0xfb, 0xbc,
    0xab, 0x01, 0x1e, 0x3e, 0xb9, 0xe1, 0x4b, 0xbe,
    0xa9, 0x72, 0x82, 0x3e, 0x77, 0x7e, 0xbb, 0xbe,
    0x78, 0xe5, 0x23, 0xbd, 0x71, 0x74, 0xa0, 0x3e,
    0xf5, 0xc3, 0x88, 0x3e, 0xb9, 0x08, 0xb6, 0x3e,
    0x49, 0x15, 0xd9, 0xbe, 0x58, 0x2e, 0xc0, 0xbe,
    0x99, 0xba, 0x93, 0x3e, 0x16, 0x9c, 0x9f, 0xba,
    0xec, 0xf2, 0xde, 0x3e, 0xce, 0x39, 0x0f, 0xbe,
    0x37, 0xa5, 0x5f, 0xbe, 0xc8, 0x55, 0xa1, 0x3e,
    0x0a, 0xf7, 0xff, 0xff, 0x04, 0x00, 0x00, 0x00,
    0x80, 0x00, 0x00, 0x00, 0x99, 0xbf, 0x1d, 0xbe,
    0x00, 0x00, 0x00, 0x00, 0x35, 0x67, 0x11, 0x3e,
    0x3f, 0x8c, 0x54, 0x3e, 0xf4, 0x39, 0xa3, 0x3d,
    0xf9, 0x87, 0x4f, 0x3e, 0x00, 0x00, 0x00, 0x00,
    0xe3, 0xfd, 0x31, 0xbf, 0x00, 0x00, 0x00, 0x00,
    0x00, 0x00, 0x00, 0x00, 0x00, 0x00, 0x00, 0x00,
    0x00, 0x00, 0x00, 0x00, 0xf4, 0x8a, 0xb5, 0x3d,
    0x00, 0x00, 0x00, 0x00, 0x00, 0x00, 0x00, 0x00,
    0x00, 0x00, 0x00, 0x00, 0xc0, 0xaf, 0x3a, 0xbe,
    0x00, 0x00, 0x00, 0x00, 0xcd, 0x97, 0x0d, 0xbf,
    0x00, 0x00, 0x00, 0x00, 0x00, 0x00, 0x00, 0x00,
    0x65, 0xe7, 0x2c, 0xbe, 0xa0, 0x45, 0x55, 0x3f,
    0x20, 0x49, 0x78, 0xbe, 0x00, 0x00, 0x00, 0x00,
    0x00, 0x00, 0x00, 0x00, 0x88, 0x8f, 0x6f, 0xbe,
    0xde, 0x05, 0x4e, 0x3f, 0x1e, 0x0f, 0x9e, 0x3c,
    0x00, 0x00, 0x00, 0x00, 0x00, 0x00, 0x00, 0x00,
    0x22, 0x73, 0x10, 0xbf, 0x96, 0xf7, 0xff, 0xff,
    0x04, 0x00, 0x00, 0x00, 0x40, 0x00, 0x00, 0x00,
    0xed, 0x99, 0x77, 0xbe, 0x0e, 0x20, 0xd5, 0x3d,
    0x39, 0xd8, 0x0d, 0x3d, 0x0b, 0x67, 0x42, 0x3f,
    0x33, 0x66, 0x53, 0x3d, 0xd1, 0xe3, 0x09, 0xbd,
    0x83, 0x0e, 0x8e, 0x3d, 0xa9, 0x1d, 0xbb, 0xbc,
    0x5f, 0x00, 0x31, 0x3d, 0x83, 0x79, 0xaa, 0xbd,
    0x10, 0xc5, 0x0e, 0xbf, 0xd1, 0xfc, 0x16, 0x3d,
    0x2e, 0x1b, 0xa3, 0xbd, 0xbf, 0xdd, 0x8a, 0xbd,
    0x5e, 0x73, 0xca, 0x3e, 0x28, 0xb6, 0xea, 0x3d,
    0xe2, 0xf7, 0xff, 0xff, 0x04, 0x00, 0x00, 0x00,
    0x04, 0x00, 0x00, 0x00, 0xde, 0xe5, 0xcf, 0xbd,
    0xf2, 0xf7, 0xff, 0xff, 0x04, 0x00, 0x00, 0x00,
    0x00, 0x08, 0x00, 0x00, 0x22, 0x7e, 0xa8, 0x3e,
    0x2c, 0x4e, 0x15, 0xbe, 0x5d, 0xdc, 0xaa, 0x3d,
    0x45, 0x62, 0x73, 0xbe, 0x53, 0xd4, 0x76, 0x3e,
    0xf0, 0xdf, 0x09, 0xbd, 0x6a, 0x2a, 0xad, 0xbe,
    0xd2, 0xb0, 0x5c, 0x3e, 0x8f, 0x65, 0x84, 0x3e,
    0x22, 0x18, 0x0a, 0xbe, 0x9c, 0x5e, 0xc7, 0x3d,
    0xe0, 0x00, 0x0c, 0x3e, 0x7d, 0x95, 0x2f, 0xbe,
    0x08, 0x16, 0x87, 0x3d, 0x88, 0x5c, 0xf6, 0xbd,
    0x00, 0x70, 0x4b, 0xbb, 0x54, 0xa7, 0xb7, 0x3e,
    0x66, 0x77, 0x54, 0x3e, 0xe4, 0x90, 0x0a, 0x3f,
    0x80, 0x7e, 0x9e, 0x3b, 0xa5, 0xf6, 0x3e, 0xbe,
    0x53, 0xc6, 0x61, 0x3e, 0xb6, 0x17, 0xbf, 0xbe,
    0xb4, 0x98, 0x3e, 0x3d, 0xe0, 0xb7, 0x42, 0x3c,
    0xe9, 0xc1, 0x2f, 0xbe, 0x1d, 0x4b, 0xe2, 0xbd,
    0x6c, 0x3e, 0x3d, 0xbf, 0xb0, 0xbd, 0x41, 0x3e,
    0x6a, 0x1a, 0x44, 0x3e, 0x41, 0xb8, 0x1a, 0xbe,
    0x60, 0x9d, 0x6d, 0x3e, 0x5b, 0x71, 0xe0, 0xbd,
    0x3b, 0xeb, 0x38, 0xbe, 0xf1, 0xd1, 0xb8, 0x3d,
    0x11, 0x3f, 0x72, 0xbd, 0x6d, 0xaf, 0xb1, 0x3e,
    0x36, 0x24, 0x6a, 0x3e, 0x58, 0x6a, 0x5f, 0x3d,
    0x3b, 0x04, 0x27, 0xbe, 0x8c, 0xc6, 0x88, 0xbe,
    0x5f, 0x76, 0x83, 0xbe, 0xd8, 0xe0, 0x69, 0xbd,
    0x30, 0xdb, 0x63, 0x3d, 0x01, 0x7b, 0x87, 0x3e,
    0xe2, 0x13, 0x4f, 0xbe, 0xb0, 0xad, 0x55, 0x3d,
    0xe5, 0x09, 0xac, 0x3e, 0x9c, 0x60, 0x15, 0x3e,
    0x00, 0xe4, 0x2d, 0x3d, 0x66, 0x65, 0xa9, 0x3d,
    0xcc, 0x73, 0x86, 0xbd, 0x60, 0xfd, 0x64, 0x3d,
    0x6d, 0xe6, 0x67, 0x3d, 0x9c, 0xe2, 0x61, 0x3c,
    0xc7, 0xd0, 0x90, 0xbe, 0x23, 0xcc, 0xaa, 0x3e,
    0x00, 0x57, 0x82, 0xbe, 0xb6, 0xb1, 0x8f, 0xbc,
    0x2c, 0x4f, 0xe8, 0x3d, 0x11, 0x65, 0x96, 0x3e,
    0x86, 0x61, 0x7a, 0x3e, 0x78, 0xbc, 0x58, 0xbd,
    0x11, 0x44, 0x95, 0xbd, 0x80, 0x99, 0x97, 0x3e,
    0x1c, 0x05, 0x8e, 0xbe, 0x8b, 0xfd, 0x07, 0x3e,
    0xb6, 0xc4, 0x39, 0xbe, 0xf6, 0xa4, 0x49, 0xbe,
    0xf0, 0x9c, 0x57, 0x3e, 0xc8, 0xad, 0x8b, 0xbe,
    0xdf, 0xee, 0x3f, 0x3d, 0xcb, 0x0f, 0xae, 0x3e,
    0xa6, 0x37, 0xe2, 0xbd, 0x7e, 0x74, 0x61, 0x3e,
    0x62, 0x88, 0x3e, 0x3e, 0xd0, 0xd3, 0x8c, 0xbd,
    0x9e, 0x49, 0xa6, 0xbe, 0x4a, 0xf4, 0x6a, 0xbe,
    0x95, 0xb4, 0x8e, 0xbe, 0xbe, 0xde, 0x1d, 0xbe,
    0x73, 0x69, 0xaa, 0x3e, 0x1b, 0xb8, 0x73, 0xbe,
    0xa4, 0xe1, 0x73, 0xbe, 0xd6, 0x58, 0x17, 0x3e,
    0x57, 0xcb, 0x40, 0x3d, 0x3e, 0x51, 0x9e, 0xbd,
    0x7a, 0xb5, 0x59, 0xbd, 0x3d, 0xaf, 0x48, 0xbe,
    0xb0, 0xc1, 0x2d, 0x3d, 0x65, 0x3c, 0x94, 0x3e,
    0x2e, 0x59, 0xa1, 0xbd, 0x79, 0x0a, 0xf6, 0x3c,
    0xb3, 0x45, 0x9a, 0x3e, 0x4a, 0x43, 0x57, 0x3e,
    0xc2, 0x74, 0x68, 0x3e, 0xac, 0xb8, 0xb1, 0x3e,
    0xa2, 0x75, 0x7e, 0x3e, 0x0e, 0x3f, 0x64, 0x3e,
    0x51, 0x8b, 0x7b, 0xbf, 0x08, 0x76, 0x21, 0x3f,
    0x18, 0x87, 0x25, 0xbf, 0x6e, 0x8a, 0x25, 0x3e,
    0x82, 0x7a, 0xd9, 0xbe, 0x5a, 0xd2, 0x4c, 0x3e,
    0x7e, 0x30, 0x68, 0x3e, 0xf3, 0xbe, 0x2b, 0xbe,
    0x9c, 0xa0, 0xda, 0x3d, 0xf3, 0x7f, 0x71, 0xbf,
    0x5d, 0x7d, 0x9f, 0x3e, 0x82, 0x95, 0x5e, 0x3e,
    0x43, 0x86, 0x94, 0x3e, 0xfd, 0x9f, 0xec, 0x3f,
    0x04, 0xd8, 0xa5, 0xbe, 0x14, 0xc1, 0x8b, 0xbd,
    0x24, 0x24, 0x0d, 0xbe, 0x66, 0xff, 0xa4, 0xbe,
    0x89, 0x95, 0xe2, 0xbe, 0xb5, 0x70, 0x01, 0x3f,
    0x83, 0x32, 0xa1, 0xbe, 0xe2, 0x15, 0x87, 0xbe,
    0xd0, 0x9d, 0x37, 0x3d, 0x4f, 0x58, 0x5e, 0x3e,
    0x9a, 0x68, 0x0a, 0x3f, 0x2c, 0x7e, 0x9b, 0xbf,
    0xe8, 0x5a, 0xdf, 0x3d, 0x14, 0x3d, 0x98, 0xbd,
    0x51, 0x63, 0xe8, 0xbe, 0x15, 0xaf, 0x1f, 0x3d,
    0xc0, 0xc8, 0x07, 0xbd, 0xfb, 0x29, 0x90, 0x3e,
    0x4b, 0xf8, 0xb7, 0xbd, 0x03, 0x29, 0x68, 0x3e,
    0xed, 0x64, 0xa8, 0xbe, 0x00, 0x38, 0x04, 0x3b,
    0xc7, 0x9e, 0x9a, 0xbd, 0x88, 0x96, 0x5f, 0xbd,
    0x88, 0xe1, 0x12, 0xbe, 0x4c, 0xfa, 0x56, 0xbe,
    0xf9, 0x15, 0xa6, 0x3e, 0x55, 0xa0, 0x5e, 0x3e,
    0x07, 0xc4, 0xac, 0x3e, 0xd8, 0x1e, 0x79, 0xbe,
    0x44, 0x7f, 0x05, 0xbe, 0xc5, 0x2e, 0x59, 0xbe,
    0xf3, 0xd1, 0x6f, 0xbe, 0x41, 0x1e, 0x0f, 0x3d,
    0xb0, 0x33, 0xa4, 0xbe, 0x1b, 0xef, 0xa3, 0xbe,
    0x65, 0x1e, 0xfc, 0xbd, 0x8b, 0xa9, 0x34, 0x3e,
    0xd3, 0xdf, 0x8d, 0x3e, 0xe8, 0xa1, 0x53, 0x3d,
    0x03, 0x17, 0x85, 0xbe, 0x26, 0x1a, 0x89, 0x3e,
    0x06, 0xd3, 0x84, 0x3e, 0xe1, 0x3a, 0x86, 0xbe,
    0x7b, 0xf9, 0x82, 0x3e, 0x88, 0x3c, 0x36, 0x3d,
    0xac, 0xb6, 0x97, 0xbe, 0xf6, 0xf4, 0x96, 0x3e,
    0xcf, 0x42, 0xa0, 0x3e, 0x83, 0x64, 0x73, 0x3e,
    0x56, 0x2b, 0x31, 0xbe, 0xd5, 0x28, 0x71, 0xbe,
    0x5c, 0x69, 0x06, 0xbe, 0x08, 0x4c, 0x83, 0xbe,
    0xc8, 0x13, 0x14, 0xbe, 0xcc, 0xa0, 0x60, 0xbe,
    0x6b, 0x24, 0x82, 0xbe, 0x80, 0xe7, 0x68, 0x3d,
    0x00, 0x00, 0x99, 0x36, 0xdc, 0xb6, 0x5f, 0x3e,
    0x5d, 0x9d, 0xb1, 0xbe, 0x95, 0x9e, 0x08, 0xbe,
    0x99, 0xe8, 0x49, 0xbe, 0x61, 0x9b, 0xa4, 0x3e,
    0x95, 0x0b, 0x1b, 0xbe, 0x24, 0x5c, 0xd4, 0xbd,
    0x46, 0xb4, 0xb0, 0xbe, 0xde, 0xa7, 0x60, 0x3e,
    0xfa, 0x40, 0xbf, 0x3e, 0xe3, 0xf3, 0xe0, 0xbc,
    0xac, 0xc1, 0x60, 0x3e, 0xc4, 0x8d, 0xa2, 0x3d,
    0x8f, 0x4e, 0x02, 0xbe, 0x7b, 0xee, 0x44, 0x3e,
    0x82, 0x85, 0x65, 0xbe, 0xd0, 0x96, 0x08, 0xbc,
    0xe0, 0x52, 0xa9, 0x3d, 0x3a, 0xec, 0x44, 0xbe,
    0x7e, 0xaf, 0x89, 0xbe, 0x40, 0x1c, 0x35, 0xbe,
    0x78, 0xab, 0x22, 0xbd, 0x19, 0xef, 0x43, 0x3d,
    0xf2, 0xa8, 0x09, 0xbe, 0xc1, 0x10, 0x6c, 0xbe,
    0x25, 0x92, 0x7c, 0x3e, 0x03, 0x93, 0x3d, 0xbe,
    0x88, 0x3d, 0x96, 0xbe, 0x40, 0xa6, 0xd8, 0xbc,
    0xa8, 0xd4, 0xa5, 0xbd, 0xc5, 0x62, 0x3a, 0xbe,
    0x42, 0xb0, 0x2f, 0x3e, 0xe1, 0x2a, 0xfc, 0xbc,
    0x21, 0x5f, 0x86, 0x3e, 0xa6, 0xcf, 0x7f, 0x3e,
    0x38, 0x70, 0x23, 0x3d, 0x9d, 0x83, 0x5a, 0xbe,
    0xd0, 0xff, 0x41, 0x3d, 0x89, 0x5d, 0xc1, 0xbe,
    0x60, 0x40, 0x27, 0xbe, 0x1b, 0xfd, 0x95, 0x3e,
    0xca, 0x58, 0x8e, 0x3d, 0x29, 0x73, 0xb3, 0x3e,
    0x32, 0xf7, 0x58, 0x3e, 0xa6, 0xb2, 0x68, 0x3e,
    0x20, 0x16, 0x70, 0xbc, 0x67, 0x7d, 0x97, 0x3e,
    0x4d, 0xc6, 0x96, 0x3e, 0xe3, 0xc3, 0x81, 0xbd,
    0x11, 0x69, 0xb4, 0x3e, 0xa5, 0x7e, 0x89, 0x3e,
    0x23, 0x45, 0x24, 0x3e, 0x64, 0xfc, 0xa6, 0x3e,
    0xd5, 0xd1, 0x87, 0xbe, 0xfa, 0x92, 0x54, 0x3c,
    0x86, 0xf7, 0x58, 0xbe, 0x2f, 0xf3, 0x50, 0x3e,
    0xba, 0x0a, 0xf6, 0x3b, 0x49, 0x63, 0xb4, 0x3e,
    0xd1, 0x3c, 0x5c, 0x3e, 0x60, 0x33, 0x57, 0xbe,
    0x63, 0x29, 0x0f, 0xbe, 0xf2, 0x19, 0x78, 0x3e,
    0xce, 0xed, 0x6d, 0x3e, 0x76, 0x12, 0xb8, 0xbe,
    0x92, 0x6f, 0x44, 0x3e, 0x6e, 0xc3, 0x1a, 0x3e,
    0x9c, 0x57, 0xa9, 0x3d, 0x1d, 0xc5, 0x1f, 0xbe,
    0x43, 0xde, 0x5d, 0xbe, 0xaa, 0xa1, 0x86, 0x3e,
    0xcb, 0x06, 0x81, 0x3e, 0xea, 0x5f, 0x1a, 0x3e,
    0x3e, 0x14, 0x92, 0xbe, 0x41, 0x33, 0xa7, 0xbe,
    0x73, 0x52, 0x8a, 0xbe, 0x12, 0xa4, 0xa8, 0xbe,
    0x30, 0x13, 0x91, 0xbc, 0x05, 0xd4, 0x8c, 0xbc,
    0x46, 0x96, 0x9c, 0x3e, 0xc8, 0xcd, 0xa0, 0x3e,
    0xe8, 0x47, 0x16, 0xbd, 0x52, 0x78, 0x56, 0x3e,
    0x95, 0x48, 0xa9, 0x3e, 0x2a, 0x51, 0x92, 0xbd,
    0xdb, 0xee, 0x90, 0x3e, 0x84, 0x3b, 0x16, 0x3e,
    0xb5, 0xac, 0x8a, 0x3e, 0x68, 0x6b, 0x64, 0xbe,
    0xc1, 0xa0, 0xb4, 0x3c, 0x2d, 0x66, 0x8f, 0x3e,
    0x6d, 0x84, 0xe8, 0x3d, 0x08, 0x18, 0x95, 0xbe,
    0xc0, 0xbc, 0xc2, 0x3d, 0x50, 0x28, 0xa8, 0x3c,
    0xc2, 0xfc, 0x93, 0xbe, 0xa8, 0x0c, 0x80, 0x3e,
    0x26, 0x66, 0x32, 0xbe, 0x3a, 0x3a, 0xa8, 0xbe,
    0x88, 0x78, 0x08, 0xbe, 0xa3, 0x01, 0xb3, 0xbe,
    0x77, 0xa4, 0xad, 0xbe, 0x2e, 0x0b, 0x5b, 0x3c,
    0x00, 0xcb, 0x66, 0xbc, 0x54, 0xcd, 0x13, 0x3e,
    0x18, 0x1b, 0xab, 0x3e, 0x9f, 0x70, 0xf6, 0x3d,
    0x63, 0xb9, 0x0d, 0xbe, 0x5c, 0x87, 0xb4, 0xbe,
    0x66, 0xc2, 0x7b, 0x3e, 0x7e, 0x19, 0x26, 0xbe,
    0xba, 0x01, 0x1c, 0x3c, 0x71, 0xd8, 0xaf, 0x3e,
    0x65, 0x38, 0xa8, 0x3e, 0xe4, 0x68, 0xce, 0xbd,
    0x11, 0xfc, 0xba, 0xbe, 0xea, 0xdf, 0x95, 0xbe,
    0xfa, 0xad, 0x7f, 0x3e, 0xd5, 0x42, 0x29, 0x3e,
    0xfa, 0x21, 0x6c, 0xbd, 0x68, 0x90, 0x22, 0xbe,
    0x39, 0xc6, 0xa7, 0xbe, 0x16, 0x4b, 0x13, 0xbe,
    0x46, 0xd9, 0xa7, 0x3e, 0xed, 0x7a, 0xa0, 0xbe,
    0xa8, 0x64, 0xd6, 0xbd, 0xd0, 0xd7, 0x89, 0x3c,
    0x50, 0xf2, 0xde, 0x3c, 0x9b, 0xd3, 0x96, 0xbd,
    0x24, 0xea, 0xb5, 0x3d, 0xc0, 0x9d, 0x99, 0x3c,
    0x4e, 0xed, 0x30, 0x3e, 0x26, 0x73, 0xb9, 0x3d,
    0x92, 0x78, 0x4d, 0x3e, 0xa5, 0x8f, 0x65, 0x3e,
    0x52, 0x0d, 0xab, 0xbe, 0x62, 0xb5, 0x33, 0x3e,
    0xb2, 0x05, 0x93, 0xbe, 0xe9, 0x09, 0x4a, 0x3e,
    0xc9, 0xd7, 0x9e, 0x3d, 0xda, 0x84, 0x2c, 0xbe,
    0xbe, 0xde, 0x24, 0x3e, 0xf7, 0xd4, 0xb7, 0x3e,
    0x92, 0xc1, 0x83, 0xbe, 0xb2, 0x31, 0xb4, 0x3e,
    0x94, 0x2b, 0x93, 0xbd, 0x5b, 0x75, 0x31, 0xbe,
    0xf9, 0x9b, 0x47, 0x3d, 0x41, 0xeb, 0x96, 0x3e,
    0x23, 0x12, 0x81, 0xbe, 0x86, 0x69, 0x76, 0x3d,
    0xf8, 0x83, 0x91, 0xbe, 0x5c, 0xb1, 0xc3, 0x3c,
    0x56, 0x1b, 0x1f, 0x3e, 0xc6, 0x34, 0x30, 0x3e,
    0xd8, 0x99, 0x43, 0x3d, 0x00, 0x0e, 0x93, 0xbc,
    0x69, 0x59, 0x83, 0x3e, 0xae, 0xbf, 0x15, 0x3e,
    0x1a, 0xde, 0x86, 0xbe, 0xab, 0xcc, 0x59, 0x3e,
    0xa2, 0xe7, 0x30, 0x3e, 0xdf, 0x48, 0xa3, 0xbe,
    0x40, 0x34, 0xf3, 0x3c, 0x6b, 0x3a, 0x23, 0x3e,
    0x37, 0x4f, 0xa9, 0x3e, 0x70, 0xad, 0x24, 0x3f,
    0xd0, 0xe2, 0xe2, 0xbd, 0x40, 0xdb, 0x23, 0x3d,
    0xdd, 0x37, 0xf4, 0xbb, 0x06, 0x8e, 0xdf, 0xbe,
    0x6c, 0x2c, 0xbf, 0x3e, 0x3a, 0xaf, 0x3d, 0x3e,
    0x0b, 0xdb, 0x21, 0xbe, 0xe7, 0x9d, 0x24, 0xbe,
    0x09, 0x8d, 0xfa, 0xbe, 0x54, 0x28, 0x1c, 0x3e,
    0xd0, 0xc6, 0x13, 0x3e, 0xd0, 0xc8, 0x01, 0xbd,
    0x38, 0xca, 0xfa, 0x3e, 0x55, 0x02, 0x8e, 0xbe,
    0xf0, 0x46, 0xcd, 0xbc, 0x34, 0xbf, 0x26, 0xbe,
    0x94, 0xd6, 0x80, 0x3e, 0xcb, 0x7f, 0x6c, 0xbe,
    0x84, 0xe3, 0x00, 0x3e, 0x0f, 0x46, 0xb1, 0x3e,
    0xe8, 0x17, 0xc0, 0xbc, 0xf9, 0x84, 0x95, 0x3e,
    0xcf, 0xfa, 0x94, 0xbe, 0x60, 0xf3, 0x08, 0x3c,
    0x49, 0xf1, 0x8a, 0x3e, 0x2d, 0x03, 0x7b, 0x3d,
    0xfb, 0xc5, 0x9e, 0x3e, 0x1e, 0x79, 0x3e, 0x3e,
    0x63, 0x27, 0x92, 0x3e, 0x58, 0xc6, 0x4e, 0x3e,
    0x5c, 0xfe, 0x5f, 0xbe, 0x66, 0x75, 0x3e, 0x3d,
    0xd2, 0xd4, 0x4e, 0x3e, 0x40, 0x81, 0x88, 0xbe,
    0xf1, 0xd8, 0x98, 0x3e, 0x4a, 0x73, 0x0c, 0xbe,
    0x07, 0xd8, 0xaa, 0x3e, 0x42, 0x89, 0x2d, 0x3e,
    0x40, 0x8a, 0xa8, 0x3c, 0xa4, 0xd6, 0xcd, 0x3c,
    0x62, 0x29, 0xf7, 0x3e, 0xaa, 0x65, 0x62, 0x3e,
    0xa0, 0x03, 0x91, 0x3c, 0x85, 0xa4, 0x8e, 0x3e,
    0x56, 0x45, 0x5b, 0xbe, 0x53, 0x92, 0xd3, 0x3d,
    0xa0, 0x9c, 0x40, 0xbc, 0x43, 0xb6, 0xb2, 0x3c,
    0xb7, 0xef, 0xee, 0x3d, 0xd7, 0xfc, 0xee, 0x3a,
    0x36, 0x83, 0xbe, 0xbe, 0xef, 0x79, 0x9d, 0x3e,
    0x68, 0xe0, 0x2b, 0xbc, 0x93, 0xb0, 0x90, 0xbe,
    0x25, 0x3a, 0x4d, 0xbe, 0xb6, 0xc9, 0x2f, 0xbe,
    0x48, 0x32, 0x35, 0xbd, 0x73, 0xee, 0x9d, 0x3e,
    0x56, 0x6e, 0x6f, 0x3e, 0x48, 0x0f, 0xaf, 0x3d,
    0x02, 0x35, 0x25, 0x3e, 0x6a, 0xf3, 0x51, 0x3e,
    0x0a, 0x90, 0xdd, 0xbd, 0x9d, 0xa3, 0x6e, 0x3e,
    0xc5, 0x09, 0xa6, 0x3e, 0xe0, 0x3e, 0x67, 0x3d,
    0xd3, 0x9f, 0xdc, 0x3d, 0x80, 0xc0, 0x77, 0x3e,
    0x3a, 0x1f, 0x6c, 0xbe, 0x5b, 0xfb, 0xb1, 0x3e,
    0xc6, 0x61, 0x18, 0x3e, 0xcf, 0xc6, 0x1c, 0xbe,
    0x2c, 0x0a, 0xdd, 0x3d, 0x68, 0x8e, 0x7f, 0x3e,
    0x87, 0xf4, 0xa0, 0x3e, 0x70, 0x50, 0xc5, 0x3d,
    0xed, 0x10, 0x5d, 0xbd, 0x26, 0x89, 0x5d, 0xbe,
    0xaf, 0x78, 0x15, 0xbe, 0x74, 0x12, 0x03, 0xbe,
    0x0e, 0xa3, 0x08, 0x3e, 0x80, 0xaf, 0xf2, 0x3d,
    0xeb, 0x1f, 0x99, 0x3e, 0xc6, 0xbd, 0x90, 0xbe,
    0xb3, 0x37, 0xcb, 0x3e, 0xa6, 0x90, 0x1c, 0x3e,
    0x19, 0xdf, 0x30, 0xbe, 0x64, 0x0f, 0xc3, 0x3d,
    0xfa, 0x2e, 0x53, 0x3e, 0x83, 0x0e, 0x8f, 0xbe,
    0x57, 0xd9, 0x97, 0x3e, 0x84, 0x98, 0x0f, 0x3e,
    0x90, 0x35, 0xb2, 0xbd, 0x90, 0x3d, 0x1c, 0x3e,
    0x82, 0xcc, 0x6c, 0xbe, 0x26, 0xff, 0x3a, 0x3e,
    0x7a, 0x40, 0x74, 0x3e, 0x56, 0x66, 0x38, 0x3e,
    0x33, 0x91, 0x4f, 0x3e, 0xcf, 0x40, 0x81, 0x3e,
    0x09, 0xc0, 0x91, 0x3e, 0xaa, 0xe8, 0x49, 0x3e,
    0x71, 0xba, 0x96, 0x3e, 0x72, 0xa1, 0x4b, 0x3e,
    0xdd, 0x48, 0x97, 0xbe, 0x3c, 0x29, 0xb2, 0x3d,
    0xb9, 0x31, 0x8e, 0x3e, 0x9a, 0x91, 0x4c, 0x3e,
    0x90, 0x2f, 0xb3, 0x3e, 0xe8, 0xf0, 0x71, 0xbc,
    0x47, 0x09, 0xb2, 0x3e, 0xf1, 0xe0, 0xcb, 0x3e,
    0xcf, 0x5a, 0x42, 0x3e, 0x13, 0xe4, 0x16, 0x3f,
    0x52, 0x3b, 0x90, 0x3e, 0xf1, 0x28, 0x87, 0x3e,
    0x47, 0x87, 0x21, 0xbf, 0x91, 0x31, 0x02, 0xbe,
    0xd8, 0x3c, 0x9f, 0x3d, 0x56, 0xd5, 0xea, 0xbd,
    0xfb, 0x1c, 0xb1, 0xbe, 0x07, 0x56, 0x28, 0xbe,
    0xae, 0xf2, 0x8d, 0xbe, 0x6c, 0xc5, 0x01, 0xbe,
    0x3e, 0xba, 0x19, 0x3e, 0x13, 0x09, 0x9e, 0xbe,
    0x8e, 0xa3, 0x25, 0x3e, 0x9d, 0x47, 0xa5, 0xbf,
    0x2f, 0x38, 0x43, 0xbe, 0x40, 0x0c, 0xae, 0xbd,
    0x36, 0xaa, 0xbf, 0xbe, 0x9c, 0x86, 0xb4, 0x3e,
    0x22, 0x89, 0x97, 0xbe, 0xf9, 0x74, 0x2a, 0xbe,
    0xd2, 0x35, 0x6a, 0x3e, 0x19, 0x90, 0x03, 0xbf,
    0x0c, 0x57, 0x37, 0x3f, 0x8c, 0xdd, 0xd4, 0x3c,
    0xae, 0xef, 0x50, 0x3e, 0xee, 0x1b, 0x45, 0x3e,
    0x1c, 0x09, 0xac, 0xbe, 0x07, 0x7d, 0x84, 0xbe,
    0xe5, 0x0e, 0xb1, 0x3e, 0x84, 0xe1, 0x08, 0xbc,
    0xdc, 0x8a, 0x90, 0xbe, 0xff, 0x02, 0x1e, 0x3d,
    0xae, 0x8a, 0x18, 0xbe, 0xfa, 0xb8, 0x07, 0x3e,
    0x8b, 0x83, 0xba, 0xbe, 0x98, 0x20, 0xac, 0xbe,
    0x5b, 0x8a, 0xb2, 0xbe, 0xbb, 0x1f, 0x4a, 0xbe,
    0x51, 0xa9, 0xb4, 0x3e, 0xbc, 0x8b, 0x22, 0x3e,
    0x21, 0x70, 0x7f, 0xbe, 0xd8, 0x35, 0x2b, 0xbd,
    0x10, 0xbc, 0xf7, 0x3c, 0x5c, 0xc8, 0x27, 0x3c,
    0x91, 0xf3, 0xa2, 0xbe, 0x0e, 0xb8, 0x60, 0xbe,
    0xea, 0x6e, 0x51, 0x3e, 0x30, 0xbe, 0x8a, 0xbd,
    0xbc, 0x38, 0x69, 0x3e, 0x1e, 0x25, 0x92, 0x3e,
    0x85, 0x13, 0x92, 0xbe, 0xc6, 0xe6, 0x1e, 0x3e,
    0xc1, 0xb6, 0x86, 0x3e, 0x0f, 0x28, 0xee, 0x3d,
    0x56, 0x0b, 0x8a, 0x3e, 0x53, 0xcc, 0x9d, 0x3e,
    0xd4, 0x1d, 0xbd, 0x3d, 0xfa, 0xaf, 0x42, 0x3e,
    0x22, 0x4d, 0x89, 0x3e, 0x00, 0x00, 0x06, 0x00,
    0x08, 0x00, 0x04, 0x00, 0x06, 0x00, 0x00, 0x00,
    0x04, 0x00, 0x00, 0x00, 0x40, 0x00, 0x00, 0x00,
    0x48, 0x0b, 0xb0, 0x3f, 0x6b, 0x69, 0x2b, 0xbf,
    0x21, 0x60, 0xdb, 0xbe, 0x0d, 0x08, 0x79, 0xbf,
    0x04, 0x02, 0x18, 0xbe, 0x3e, 0x9c, 0x19, 0x3f,
    0xc3, 0x65, 0x20, 0xbe, 0x10, 0x11, 0xd0, 0x3e,
    0xa5, 0x51, 0xeb, 0xbe, 0x74, 0x09, 0xa9, 0x3e,
    0x70, 0x90, 0xa2, 0x3e, 0xa3, 0xbf, 0x9a, 0xbe,
    0x31, 0x2f, 0xb0, 0x3d, 0xa3, 0xea, 0x98, 0x3e,
    0x20, 0xad, 0xc0, 0x3f, 0xea, 0x13, 0x1a, 0xbf,
    0x30, 0xfb, 0xff, 0xff, 0x34, 0xfb, 0xff, 0xff,
    0x0f, 0x00, 0x00, 0x00, 0x4d, 0x4c, 0x49, 0x52,
    0x20, 0x43, 0x6f, 0x6e, 0x76, 0x65, 0x72, 0x74,
    0x65, 0x64, 0x2e, 0x00, 0x01, 0x00, 0x00, 0x00,
    0x14, 0x00, 0x00, 0x00, 0x00, 0x00, 0x0e, 0x00,
    0x18, 0x00, 0x14, 0x00, 0x10, 0x00, 0x0c, 0x00,
    0x08, 0x00, 0x04, 0x00, 0x0e, 0x00, 0x00, 0x00,
    0x14, 0x00, 0x00, 0x00, 0x1c, 0x00, 0x00, 0x00,
    0xd8, 0x00, 0x00, 0x00, 0xdc, 0x00, 0x00, 0x00,
    0xe0, 0x00, 0x00, 0x00, 0x04, 0x00, 0x00, 0x00,
    0x6d, 0x61, 0x69, 0x6e, 0x00, 0x00, 0x00, 0x00,
    0x03, 0x00, 0x00, 0x00, 0x80, 0x00, 0x00, 0x00,
    0x38, 0x00, 0x00, 0x00, 0x04, 0x00, 0x00, 0x00,
    0x9a, 0xff, 0xff, 0xff, 0x10, 0x00, 0x00, 0x00,
    0x00, 0x00, 0x00, 0x08, 0x0c, 0x00, 0x00, 0x00,
    0x10, 0x00, 0x00, 0x00, 0xac, 0xfb, 0xff, 0xff,
    0x01, 0x00, 0x00, 0x00, 0x09, 0x00, 0x00, 0x00,
    0x03, 0x00, 0x00, 0x00, 0x08, 0x00, 0x00, 0x00,
    0x01, 0x00, 0x00, 0x00, 0x03, 0x00, 0x00, 0x00,
    0xca, 0xff, 0xff, 0xff, 0x10, 0x00, 0x00, 0x00,
    0x00, 0x00, 0x00, 0x08, 0x10, 0x00, 0x00, 0x00,
    0x14, 0x00, 0x00, 0x00, 0xba, 0xff, 0xff, 0xff,
    0x00, 0x00, 0x00, 0x01, 0x01, 0x00, 0x00, 0x00,
    0x08, 0x00, 0x00, 0x00, 0x03, 0x00, 0x00, 0x00,
    0x07, 0x00, 0x00, 0x00, 0x02, 0x00, 0x00, 0x00,
    0x04, 0x00, 0x00, 0x00, 0x00, 0x00, 0x0e, 0x00,
    0x16, 0x00, 0x00, 0x00, 0x10, 0x00, 0x0c, 0x00,
    0x0b, 0x00, 0x04, 0x00, 0x0e, 0x00, 0x00, 0x00,
    0x18, 0x00, 0x00, 0x00, 0x00, 0x00, 0x00, 0x08,
    0x18, 0x00, 0x00, 0x00, 0x1c, 0x00, 0x00, 0x00,
    0x00, 0x00, 0x06, 0x00, 0x08, 0x00, 0x07, 0x00,
    0x06, 0x00, 0x00, 0x00, 0x00, 0x00, 0x00, 0x01,
    0x01, 0x00, 0x00, 0x00, 0x07, 0x00, 0x00, 0x00,
    0x03, 0x00, 0x00, 0x00, 0x00, 0x00, 0x00, 0x00,
    0x06, 0x00, 0x00, 0x00, 0x05, 0x00, 0x00, 0x00,
    0x01, 0x00, 0x00, 0x00, 0x09, 0x00, 0x00, 0x00,
    0x01, 0x00, 0x00, 0x00, 0x00, 0x00, 0x00, 0x00,
    0x0a, 0x00, 0x00, 0x00, 0x7c, 0x03, 0x00, 0x00,
    0x24, 0x03, 0x00, 0x00, 0xcc, 0x02, 0x00, 0x00,
    0x90, 0x02, 0x00, 0x00, 0x34, 0x02, 0x00, 0x00,
    0xdc, 0x01, 0x00, 0x00, 0x90, 0x01, 0x00, 0x00,
    0xfc, 0x00, 0x00, 0x00, 0x60, 0x00, 0x00, 0x00,
    0x04, 0x00, 0x00, 0x00, 0xc2, 0xfc, 0xff, 0xff,
    0x00, 0x00, 0x00, 0x01, 0x14, 0x00, 0x00, 0x00,
    0x1c, 0x00, 0x00, 0x00, 0x1c, 0x00, 0x00, 0x00,
    0x0a, 0x00, 0x00, 0x00, 0x34, 0x00, 0x00, 0x00,
    0x02, 0x00, 0x00, 0x00, 0xff, 0xff, 0xff, 0xff,
    0x01, 0x00, 0x00, 0x00, 0xac, 0xfc, 0xff, 0xff,
    0x1b, 0x00, 0x00, 0x00, 0x53, 0x74, 0x61, 0x74,
    0x65, 0x66, 0x75, 0x6c, 0x50, 0x61, 0x72, 0x74,
    0x69, 0x74, 0x69, 0x6f, 0x6e, 0x65, 0x64, 0x43,
    0x61, 0x6c, 0x6c, 0x5f, 0x31, 0x3a, 0x30, 0x00,
    0x02, 0x00, 0x00, 0x00, 0x01, 0x00, 0x00, 0x00,
    0x01, 0x00, 0x00, 0x00, 0x1a, 0xfd, 0xff, 0xff,
    0x00, 0x00, 0x00, 0x01, 0x14, 0x00, 0x00, 0x00,
    0x1c, 0x00, 0x00, 0x00, 0x1c, 0x00, 0x00, 0x00,
    0x09, 0x00, 0x00, 0x00, 0x74, 0x00, 0x00, 0x00,
    0x02, 0x00, 0x00, 0x00, 0xff, 0xff, 0xff, 0xff,
    0x10, 0x00, 0x00, 0x00, 0x04, 0xfd, 0xff, 0xff,
    0x58, 0x00, 0x00, 0x00, 0x73, 0x65, 0x71, 0x75,
    0x65, 0x6e, 0x74, 0x69, 0x61, 0x6c, 0x5f, 0x31,
    0x2f, 0x64, 0x65, 0x6e, 0x73, 0x65, 0x5f, 0x31,
    0x5f, 0x32, 0x2f, 0x4d, 0x61, 0x74, 0x4d, 0x75,
    0x6c, 0x3b, 0x73, 0x65, 0x71, 0x75, 0x65, 0x6e,
    0x74, 0x69, 0x61, 0x6c, 0x5f, 0x31, 0x2f, 0x64,
    0x65, 0x6e, 0x73, 0x65, 0x5f, 0x31, 0x5f, 0x32,
    0x2f, 0x52, 0x65, 0x6c, 0x75, 0x3b, 0x73, 0x65,
    0x71, 0x75, 0x65, 0x6e, 0x74, 0x69, 0x61, 0x6c,
    0x5f, 0x31, 0x2f, 0x64, 0x65, 0x6e, 0x73, 0x65,
    0x5f, 0x31, 0x5f, 0x32, 0x2f, 0x42, 0x69, 0x61,
    0x73, 0x41, 0x64, 0x64, 0x00, 0x00, 0x00, 0x00,
    0x02, 0x00, 0x00, 0x00, 0x01, 0x00, 0x00, 0x00,
    0x10, 0x00, 0x00, 0x00, 0xb2, 0xfd, 0xff, 0xff,
    0x00, 0x00, 0x00, 0x01, 0x14, 0x00, 0x00, 0x00,
    0x1c, 0x00, 0x00, 0x00, 0x1c, 0x00, 0x00, 0x00,
    0x08, 0x00, 0x00, 0x00, 0x6c, 0x00, 0x00, 0x00,
    0x02, 0x00, 0x00, 0x00, 0xff, 0xff, 0xff, 0xff,
    0x20, 0x00, 0x00, 0x00, 0x9c, 0xfd, 0xff, 0xff,
    0x52, 0x00, 0x00, 0x00, 0x73, 0x65, 0x71, 0x75,
    0x65, 0x6e, 0x74, 0x69, 0x61, 0x6c, 0x5f, 0x31,
    0x2f, 0x64, 0x65, 0x6e, 0x73, 0x65, 0x5f, 0x31,
    0x2f, 0x4d, 0x61, 0x74, 0x4d, 0x75, 0x6c, 0x3b,
    0x73, 0x65, 0x71, 0x75, 0x65, 0x6e, 0x74, 0x69,
    0x61, 0x6c, 0x5f, 0x31, 0x2f, 0x64, 0x65, 0x6e,
    0x73, 0x65, 0x5f, 0x31, 0x2f, 0x52, 0x65, 0x6c,
    0x75, 0x3b, 0x73, 0x65, 0x71, 0x75, 0x65, 0x6e,
    0x74, 0x69, 0x61, 0x6c, 0x5f, 0x31, 0x2f, 0x64,
    0x65, 0x6e, 0x73, 0x65, 0x5f, 0x31, 0x2f, 0x42,
    0x69, 0x61, 0x73, 0x41, 0x64, 0x64, 0x00, 0x00,
    0x02, 0x00, 0x00, 0x00, 0x01, 0x00, 0x00, 0x00,
    0x20, 0x00, 0x00, 0x00, 0x96, 0xfe, 0xff, 0xff,
    0x00, 0x00, 0x00, 0x01, 0x10, 0x00, 0x00, 0x00,
    0x10, 0x00, 0x00, 0x00, 0x07, 0x00, 0x00, 0x00,
    0x28, 0x00, 0x00, 0x00, 0x1c, 0xfe, 0xff, 0xff,
    0x1b, 0x00, 0x00, 0x00, 0x73, 0x65, 0x71, 0x75,
    0x65, 0x6e, 0x74, 0x69, 0x61, 0x6c, 0x5f, 0x31,
    0x2f, 0x64, 0x65, 0x6e, 0x73, 0x65, 0x5f, 0x31,
    0x2f, 0x4d, 0x61, 0x74, 0x4d, 0x75, 0x6c, 0x00,
    0x02, 0x00, 0x00, 0x00, 0x20, 0x00, 0x00, 0x00,
    0x01, 0x00, 0x00, 0x00, 0xde, 0xfe, 0xff, 0xff,
    0x00, 0x00, 0x00, 0x01, 0x10, 0x00, 0x00, 0x00,
    0x10, 0x00, 0x00, 0x00, 0x06, 0x00, 0x00, 0x00,
    0x38, 0x00, 0x00, 0x00, 0x64, 0xfe, 0xff, 0xff,
    0x2b, 0x00, 0x00, 0x00, 0x73, 0x65, 0x71, 0x75,
    0x65, 0x6e, 0x74, 0x69, 0x61, 0x6c, 0x5f, 0x31,
    0x2f, 0x64, 0x65, 0x6e, 0x73, 0x65, 0x5f, 0x31,
    0x2f, 0x42, 0x69, 0x61, 0x73, 0x41, 0x64, 0x64,
    0x2f, 0x52, 0x65, 0x61, 0x64, 0x56, 0x61, 0x72,
    0x69, 0x61, 0x62, 0x6c, 0x65, 0x4f, 0x70, 0x00,
    0x01, 0x00, 0x00, 0x00, 0x20, 0x00, 0x00, 0x00,
    0x32, 0xff, 0xff, 0xff, 0x00, 0x00, 0x00, 0x01,
    0x10, 0x00, 0x00, 0x00, 0x10, 0x00, 0x00, 0x00,
    0x05, 0x00, 0x00, 0x00, 0x3c, 0x00, 0x00, 0x00,
    0xb8, 0xfe, 0xff, 0xff, 0x2d, 0x00, 0x00, 0x00,
    0x73, 0x65, 0x71, 0x75, 0x65, 0x6e, 0x74, 0x69,
    0x61, 0x6c, 0x5f, 0x31, 0x2f, 0x64, 0x65, 0x6e,
    0x73, 0x65, 0x5f, 0x31, 0x5f, 0x32, 0x2f, 0x42,
    0x69, 0x61, 0x73, 0x41, 0x64, 0x64, 0x2f, 0x52,
    0x65, 0x61, 0x64, 0x56, 0x61, 0x72, 0x69, 0x61,
    0x62, 0x6c, 0x65, 0x4f, 0x70, 0x00, 0x00, 0x00,
    0x01, 0x00, 0x00, 0x00, 0x10, 0x00, 0x00, 0x00,
    0x8a, 0xff, 0xff, 0xff, 0x00, 0x00, 0x00, 0x01,
    0x10, 0x00, 0x00, 0x00, 0x10, 0x00, 0x00, 0x00,
    0x04, 0x00, 0x00, 0x00, 0x1c, 0x00, 0x00, 0x00,
    0x10, 0xff, 0xff, 0xff, 0x0f, 0x00, 0x00, 0x00,
    0x61, 0x72, 0x69, 0x74, 0x68, 0x2e, 0x63, 0x6f,
    0x6e, 0x73, 0x74, 0x61, 0x6e, 0x74, 0x32, 0x00,
    0x01, 0x00, 0x00, 0x00, 0x01, 0x00, 0x00, 0x00,
    0xc2, 0xff, 0xff, 0xff, 0x00, 0x00, 0x00, 0x01,
    0x10, 0x00, 0x00, 0x00, 0x10, 0x00, 0x00, 0x00,
    0x03, 0x00, 0x00, 0x00, 0x1c, 0x00, 0x00, 0x00,
    0x48, 0xff, 0xff, 0xff, 0x0f, 0x00, 0x00, 0x00,
    0x61, 0x72, 0x69, 0x74, 0x68, 0x2e, 0x63, 0x6f,
    0x6e, 0x73, 0x74, 0x61, 0x6e, 0x74, 0x31, 0x00,
    0x02, 0x00, 0x00, 0x00, 0x10, 0x00, 0x00, 0x00,
    0x20, 0x00, 0x00, 0x00, 0x00, 0x00, 0x16, 0x00,
    0x18, 0x00, 0x14, 0x00, 0x00, 0x00, 0x10, 0x00,
    0x0c, 0x00, 0x08, 0x00, 0x00, 0x00, 0x00, 0x00,
    0x00, 0x00, 0x07, 0x00, 0x16, 0x00, 0x00, 0x00,
    0x00, 0x00, 0x00, 0x01, 0x10, 0x00, 0x00, 0x00,
    0x10, 0x00, 0x00, 0x00, 0x02, 0x00, 0x00, 0x00,
    0x1c, 0x00, 0x00, 0x00, 0x9c, 0xff, 0xff, 0xff,
    0x0e, 0x00, 0x00, 0x00, 0x61, 0x72, 0x69, 0x74,
    0x68, 0x2e, 0x63, 0x6f, 0x6e, 0x73, 0x74, 0x61,
    0x6e, 0x74, 0x00, 0x00, 0x02, 0x00, 0x00, 0x00,
    0x01, 0x00, 0x00, 0x00, 0x10, 0x00, 0x00, 0x00,
    0x00, 0x00, 0x16, 0x00, 0x1c, 0x00, 0x18, 0x00,
    0x00, 0x00, 0x14, 0x00, 0x10, 0x00, 0x0c, 0x00,
    0x00, 0x00, 0x00, 0x00, 0x08, 0x00, 0x07, 0x00,
    0x16, 0x00, 0x00, 0x00, 0x00, 0x00, 0x00, 0x01,
    0x14, 0x00, 0x00, 0x00, 0x20, 0x00, 0x00, 0x00,
    0x20, 0x00, 0x00, 0x00, 0x01, 0x00, 0x00, 0x00,
    0x3c, 0x00, 0x00, 0x00, 0x02, 0x00, 0x00, 0x00,
    0xff, 0xff, 0xff, 0xff, 0x01, 0x00, 0x00, 0x00,
    0x04, 0x00, 0x04, 0x00, 0x04, 0x00, 0x00, 0x00,
    0x1e, 0x00, 0x00, 0x00, 0x73, 0x65, 0x72, 0x76,
    0x69, 0x6e, 0x67, 0x5f, 0x64, 0x65, 0x66, 0x61,
    0x75, 0x6c, 0x74, 0x5f, 0x6b, 0x65, 0x72, 0x61,
    0x73, 0x5f, 0x74, 0x65, 0x6e, 0x73, 0x6f, 0x72,
    0x3a, 0x30, 0x00, 0x00, 0x02, 0x00, 0x00, 0x00,
    0x01, 0x00, 0x00, 0x00, 0x01, 0x00, 0x00, 0x00,
    0x01, 0x00, 0x00, 0x00, 0x10, 0x00, 0x00, 0x00,
    0x0c, 0x00, 0x0c, 0x00, 0x0b, 0x00, 0x00, 0x00,
    0x00, 0x00, 0x04, 0x00, 0x0c, 0x00, 0x00, 0x00,
    0x09, 0x00, 0x00, 0x00, 0x00, 0x00, 0x00, 0x09
};

#endif // SINE_MODEL_H
