#ifndef SINE_MODEL_H
#define SINE_MODEL_H


unsigned int sine_model_len = 4332;
unsigned char sine_model[] = {
 0x1c, 0x00, 0x00, 0x00, 0x54, 0x46, 0x4c, 0x33, 0x14, 0x00, 0x20, 0x00,
  0x1c, 0x00, 0x18, 0x00, 0x14, 0x00, 0x10, 0x00, 0x0c, 0x00, 0x00, 0x00,
  0x08, 0x00, 0x04, 0x00, 0x14, 0x00, 0x00, 0x00, 0x1c, 0x00, 0x00, 0x00,
  0x98, 0x00, 0x00, 0x00, 0xf0, 0x00, 0x00, 0x00, 0x94, 0x0b, 0x00, 0x00,
  0xa4, 0x0b, 0x00, 0x00, 0x98, 0x10, 0x00, 0x00, 0x03, 0x00, 0x00, 0x00,
  0x01, 0x00, 0x00, 0x00, 0x10, 0x00, 0x00, 0x00, 0x00, 0x00, 0x0a, 0x00,
  0x10, 0x00, 0x0c, 0x00, 0x08, 0x00, 0x04, 0x00, 0x0a, 0x00, 0x00, 0x00,
  0x0c, 0x00, 0x00, 0x00, 0x1c, 0x00, 0x00, 0x00, 0x3c, 0x00, 0x00, 0x00,
  0x0f, 0x00, 0x00, 0x00, 0x73, 0x65, 0x72, 0x76, 0x69, 0x6e, 0x67, 0x5f,
  0x64, 0x65, 0x66, 0x61, 0x75, 0x6c, 0x74, 0x00, 0x01, 0x00, 0x00, 0x00,
  0x04, 0x00, 0x00, 0x00, 0x90, 0xff, 0xff, 0xff, 0x09, 0x00, 0x00, 0x00,
  0x04, 0x00, 0x00, 0x00, 0x08, 0x00, 0x00, 0x00, 0x6f, 0x75, 0x74, 0x70,
  0x75, 0x74, 0x5f, 0x30, 0x00, 0x00, 0x00, 0x00, 0x01, 0x00, 0x00, 0x00,
  0x04, 0x00, 0x00, 0x00, 0x3a, 0xf5, 0xff, 0xff, 0x04, 0x00, 0x00, 0x00,
  0x0f, 0x00, 0x00, 0x00, 0x6b, 0x65, 0x72, 0x61, 0x73, 0x5f, 0x74, 0x65,
  0x6e, 0x73, 0x6f, 0x72, 0x5f, 0x33, 0x35, 0x00, 0x02, 0x00, 0x00, 0x00,
  0x34, 0x00, 0x00, 0x00, 0x04, 0x00, 0x00, 0x00, 0xdc, 0xff, 0xff, 0xff,
  0x0c, 0x00, 0x00, 0x00, 0x04, 0x00, 0x00, 0x00, 0x13, 0x00, 0x00, 0x00,
  0x43, 0x4f, 0x4e, 0x56, 0x45, 0x52, 0x53, 0x49, 0x4f, 0x4e, 0x5f, 0x4d,
  0x45, 0x54, 0x41, 0x44, 0x41, 0x54, 0x41, 0x00, 0x08, 0x00, 0x0c, 0x00,
  0x08, 0x00, 0x04, 0x00, 0x08, 0x00, 0x00, 0x00, 0x0b, 0x00, 0x00, 0x00,
  0x04, 0x00, 0x00, 0x00, 0x13, 0x00, 0x00, 0x00, 0x6d, 0x69, 0x6e, 0x5f,
  0x72, 0x75, 0x6e, 0x74, 0x69, 0x6d, 0x65, 0x5f, 0x76, 0x65, 0x72, 0x73,
  0x69, 0x6f, 0x6e, 0x00, 0x0d, 0x00, 0x00, 0x00, 0xa0, 0x0a, 0x00, 0x00,
  0x98, 0x0a, 0x00, 0x00, 0x48, 0x0a, 0x00, 0x00, 0x30, 0x02, 0x00, 0x00,
  0x1c, 0x02, 0x00, 0x00, 0xcc, 0x01, 0x00, 0x00, 0x3c, 0x01, 0x00, 0x00,
  0xac, 0x00, 0x00, 0x00, 0xa4, 0x00, 0x00, 0x00, 0x9c, 0x00, 0x00, 0x00,
  0x94, 0x00, 0x00, 0x00, 0x74, 0x00, 0x00, 0x00, 0x04, 0x00, 0x00, 0x00,
  0xea, 0xf5, 0xff, 0xff, 0x04, 0x00, 0x00, 0x00, 0x60, 0x00, 0x00, 0x00,
  0x0c, 0x00, 0x00, 0x00, 0x08, 0x00, 0x0e, 0x00, 0x08, 0x00, 0x04, 0x00,
  0x08, 0x00, 0x00, 0x00, 0x10, 0x00, 0x00, 0x00, 0x28, 0x00, 0x00, 0x00,
  0x00, 0x00, 0x06, 0x00, 0x08, 0x00, 0x04, 0x00, 0x06, 0x00, 0x00, 0x00,
  0x04, 0x00, 0x00, 0x00, 0x01, 0x00, 0x00, 0x00, 0xea, 0x03, 0x00, 0x00,
  0x0c, 0x00, 0x18, 0x00, 0x14, 0x00, 0x10, 0x00, 0x0c, 0x00, 0x04, 0x00,
  0x0c, 0x00, 0x00, 0x00, 0xb2, 0xb4, 0xad, 0xd5, 0xa0, 0x99, 0xac, 0xf9,
  0x02, 0x00, 0x00, 0x00, 0x02, 0x00, 0x00, 0x00, 0x04, 0x00, 0x00, 0x00,
  0x06, 0x00, 0x00, 0x00, 0x32, 0x2e, 0x31, 0x38, 0x2e, 0x30, 0x00, 0x00,
  0x56, 0xf6, 0xff, 0xff, 0x04, 0x00, 0x00, 0x00, 0x10, 0x00, 0x00, 0x00,
  0x31, 0x2e, 0x35, 0x2e, 0x30, 0x00, 0x00, 0x00, 0x00, 0x00, 0x00, 0x00,
  0x00, 0x00, 0x00, 0x00, 0x48, 0xf1, 0xff, 0xff, 0x4c, 0xf1, 0xff, 0xff,
  0x50, 0xf1, 0xff, 0xff, 0x7e, 0xf6, 0xff, 0xff, 0x04, 0x00, 0x00, 0x00,
  0x80, 0x00, 0x00, 0x00, 0xe4, 0x24, 0xd9, 0xbd, 0xe0, 0x2c, 0xc9, 0xbd,
  0xa8, 0x84, 0x79, 0xbd, 0x01, 0xa8, 0xc8, 0x3d, 0x05, 0x3c, 0x8d, 0x3e,
  0x00, 0x96, 0xef, 0xbc, 0x5b, 0x77, 0xb4, 0xbe, 0xf0, 0x51, 0xd8, 0x3d,
  0x18, 0xc6, 0xd6, 0xbe, 0x0c, 0x77, 0x69, 0x3e, 0x02, 0x73, 0x9b, 0xbe,
  0xc0, 0x27, 0xa2, 0xbe, 0x4f, 0xcf, 0x91, 0x3e, 0x24, 0x71, 0x1f, 0xbe,
  0xc9, 0x9a, 0x52, 0xbe, 0x55, 0x5d, 0x52, 0x3e, 0xc8, 0x49, 0xdb, 0xbd,
  0xda, 0x66, 0x27, 0x3e, 0x98, 0x51, 0x04, 0xbe, 0xa4, 0xe4, 0x1d, 0xbe,
  0xf6, 0x67, 0x9e, 0x3e, 0x0b, 0xf1, 0x58, 0x3d, 0xf2, 0xf3, 0xfd, 0x3d,
  0x47, 0x0e, 0x21, 0x3f, 0xb6, 0xe6, 0x11, 0xbe, 0x18, 0xab, 0xda, 0x3e,
  0x89, 0x63, 0x33, 0x3e, 0x75, 0x7c, 0x1f, 0x3f, 0xe0, 0xde, 0x9e, 0x3e,
  0xac, 0x4f, 0xde, 0x3e, 0xb8, 0xac, 0x0b, 0xbe, 0xe3, 0x11, 0x6f, 0x3e,
  0x0a, 0xf7, 0xff, 0xff, 0x04, 0x00, 0x00, 0x00, 0x80, 0x00, 0x00, 0x00,
  0x00, 0x00, 0x00, 0x00, 0x00, 0x00, 0x00, 0x00, 0xe4, 0x12, 0x16, 0x3f,
  0x7c, 0x5b, 0x55, 0xbe, 0x14, 0x7f, 0xae, 0xbd, 0x00, 0x00, 0x00, 0x00,
  0x00, 0x00, 0x00, 0x00, 0x5a, 0xb0, 0x03, 0xbe, 0x00, 0x00, 0x00, 0x00,
  0x26, 0x04, 0x1b, 0x3f, 0x00, 0x00, 0x00, 0x00, 0x00, 0x00, 0x00, 0x00,
  0x1d, 0x8a, 0x05, 0x3e, 0x00, 0x00, 0x00, 0x00, 0x00, 0x00, 0x00, 0x00,
  0x83, 0x6e, 0xda, 0xbd, 0x00, 0x00, 0x00, 0x00, 0x60, 0x2a, 0xd7, 0xbe,
  0x00, 0x00, 0x00, 0x00, 0x00, 0x00, 0x00, 0x00, 0x72, 0xbb, 0x50, 0xbf,
  0xac, 0x93, 0x0e, 0x3f, 0x04, 0xcd, 0xad, 0x3c, 0x85, 0xf8, 0xa5, 0xbd,
  0x00, 0x00, 0x00, 0x00, 0xa9, 0x86, 0x2d, 0xbc, 0xec, 0xec, 0xf1, 0xbe,
  0xdb, 0xd8, 0x14, 0xbf, 0x99, 0xe9, 0xa3, 0xbd, 0x68, 0x80, 0xd5, 0xbc,
  0xd6, 0x9c, 0x06, 0x3f, 0x96, 0x3e, 0x8f, 0xbe, 0x96, 0xf7, 0xff, 0xff,
  0x04, 0x00, 0x00, 0x00, 0x40, 0x00, 0x00, 0x00, 0xff, 0x04, 0x82, 0xbd,
  0x1f, 0x51, 0x7f, 0x3c, 0x24, 0x49, 0xd4, 0xbd, 0x42, 0xe9, 0x1d, 0xbe,
  0x7a, 0xb5, 0x18, 0x3e, 0x79, 0x54, 0x30, 0x3d, 0xe8, 0xae, 0x30, 0xbe,
  0xe3, 0x0d, 0x28, 0x3d, 0x8a, 0x02, 0x18, 0xbf, 0x00, 0x00, 0x00, 0x00,
  0x5f, 0xa8, 0x2b, 0xbe, 0xfa, 0x29, 0x19, 0x3d, 0x11, 0x28, 0x67, 0x3e,
  0xf2, 0xed, 0x54, 0x3e, 0x9d, 0x9d, 0xbc, 0xbd, 0x00, 0x00, 0x00, 0x00,
  0xe2, 0xf7, 0xff, 0xff, 0x04, 0x00, 0x00, 0x00, 0x04, 0x00, 0x00, 0x00,
  0xf6, 0x41, 0x39, 0x3d, 0xf2, 0xf7, 0xff, 0xff, 0x04, 0x00, 0x00, 0x00,
  0x00, 0x08, 0x00, 0x00, 0xde, 0x32, 0x91, 0xbe, 0xa2, 0x06, 0x44, 0x3e,
  0xc1, 0x4c, 0xd0, 0xbe, 0xbb, 0x0e, 0x8d, 0xbe, 0xbc, 0xc8, 0xa6, 0x3e,
  0x18, 0x96, 0x81, 0x3d, 0x52, 0xcc, 0x77, 0x3e, 0x91, 0x56, 0xf4, 0xbd,
  0x25, 0xf3, 0xa7, 0x3e, 0x99, 0xe3, 0x7c, 0x3c, 0x00, 0xd1, 0xc6, 0xbc,
  0xdc, 0x11, 0x6b, 0xbe, 0xc3, 0xb6, 0x15, 0xbe, 0x40, 0xc2, 0x64, 0x3c,
  0x62, 0xeb, 0xf7, 0xbd, 0x37, 0xd5, 0x46, 0xbd, 0x4c, 0xb8, 0x7b, 0xbe,
  0x63, 0xdf, 0xce, 0x3e, 0x2f, 0x04, 0x8e, 0x3e, 0x7b, 0x59, 0x8d, 0xbe,
  0x0f, 0x4c, 0xb6, 0x3d, 0x8f, 0xf6, 0x7e, 0xbe, 0xd6, 0x06, 0x66, 0x3d,
  0xf7, 0x4f, 0x99, 0x3e, 0x00, 0x59, 0x16, 0x3b, 0xc4, 0x3b, 0x5f, 0x3d,
  0xe5, 0x45, 0x55, 0xbe, 0x0a, 0x14, 0xa1, 0x3e, 0xef, 0x75, 0xae, 0x3e,
  0xd0, 0xe4, 0x58, 0x3c, 0xd5, 0x54, 0x75, 0xbf, 0x43, 0x5b, 0xac, 0x3d,
  0xdd, 0xe3, 0xaa, 0x3e, 0xca, 0x5e, 0x5c, 0xbe, 0x91, 0x97, 0xd2, 0xbd,
  0x58, 0xf4, 0x54, 0x3e, 0x78, 0x8b, 0x85, 0xbd, 0xc0, 0x9f, 0xe9, 0xbd,
  0xd5, 0x2e, 0xaf, 0x3e, 0xdf, 0xc0, 0x4a, 0xbe, 0x70, 0x49, 0x15, 0x3d,
  0x2e, 0xbd, 0x7e, 0x3e, 0x14, 0x80, 0xfc, 0xbd, 0x40, 0x8d, 0xfc, 0x3d,
  0x2f, 0xca, 0xd9, 0x3d, 0x80, 0xc8, 0xa4, 0xbe, 0x76, 0xe6, 0x79, 0x3e,
  0xee, 0xd7, 0x82, 0x3e, 0xf3, 0x0b, 0xaf, 0x3e, 0xcb, 0x69, 0x06, 0x3e,
  0x17, 0x11, 0x1a, 0xbe, 0x54, 0x6c, 0x05, 0x3e, 0x5f, 0x2c, 0xa5, 0xbe,
  0x5f, 0x6d, 0xdb, 0x3d, 0xdc, 0xa6, 0x13, 0x3e, 0x06, 0x35, 0xbe, 0x3e,
  0x48, 0x3e, 0x39, 0xbd, 0x06, 0x56, 0xa9, 0x3e, 0x59, 0x99, 0x81, 0xbe,
  0x53, 0x45, 0xbe, 0xbd, 0xf9, 0x8f, 0xa7, 0xbe, 0x7e, 0xdb, 0x17, 0x3c,
  0x6f, 0x5c, 0xc7, 0x3e, 0x0a, 0xa6, 0x36, 0x3e, 0x48, 0xfb, 0x39, 0xbd,
  0x20, 0x78, 0x4f, 0xbd, 0xa8, 0x13, 0x81, 0x3d, 0xb8, 0x93, 0x90, 0xbe,
  0x20, 0xe2, 0x0f, 0xbe, 0xe8, 0x7b, 0x69, 0xbd, 0xea, 0xad, 0x9e, 0xbe,
  0xd5, 0xfd, 0xac, 0x3e, 0xe0, 0x6e, 0x7e, 0xbe, 0x68, 0xaf, 0x1d, 0x3d,
  0xae, 0x41, 0x61, 0x3e, 0xb4, 0x0a, 0x55, 0xbe, 0xd7, 0x38, 0xca, 0xbe,
  0x00, 0x04, 0x2a, 0xbb, 0x3d, 0xee, 0x2b, 0xbe, 0xb0, 0x4e, 0x4b, 0x3e,
  0x33, 0x2f, 0x95, 0x3e, 0x8e, 0x9b, 0x3b, 0xbe, 0xc0, 0xd9, 0xb6, 0x3b,
  0x10, 0x73, 0xa2, 0xbc, 0x62, 0xde, 0x74, 0xbe, 0xe8, 0xaa, 0x4d, 0x3e,
  0x0b, 0xdb, 0x18, 0x3e, 0xf8, 0x52, 0xae, 0xbd, 0x72, 0x2a, 0x68, 0xbe,
  0x02, 0x59, 0xc0, 0xbd, 0xb9, 0x7e, 0x9c, 0x3e, 0x3b, 0xd5, 0xb8, 0x3d,
  0x19, 0xd2, 0xf7, 0x3d, 0xfe, 0xf7, 0x1c, 0xbc, 0x10, 0x7e, 0x55, 0xbd,
  0xe8, 0x25, 0x6b, 0x3e, 0x00, 0x88, 0xcf, 0x39, 0xcb, 0xcf, 0x08, 0xbe,
  0x87, 0xbb, 0x56, 0xbe, 0xe3, 0xf6, 0x28, 0xbd, 0x95, 0xc0, 0x9f, 0x3e,
  0x89, 0xc0, 0x95, 0x3e, 0xce, 0x49, 0x97, 0xbe, 0x87, 0x2b, 0x98, 0xbd,
  0x08, 0x5a, 0x6a, 0xbd, 0xaa, 0x3e, 0x10, 0x3e, 0x24, 0x61, 0x06, 0xbe,
  0xb2, 0x60, 0x4b, 0x3e, 0x4a, 0x6f, 0x6a, 0x3e, 0x3d, 0x9a, 0x5b, 0xbe,
  0xd0, 0xe7, 0x91, 0xbd, 0xc1, 0x94, 0xa3, 0x3e, 0x8c, 0x05, 0x0b, 0x3e,
  0x96, 0xe5, 0x5e, 0x3e, 0x54, 0x1c, 0x98, 0xbd, 0x8c, 0xe7, 0x84, 0xbe,
  0xc8, 0xba, 0xcf, 0xbd, 0x41, 0xf5, 0xa3, 0xbe, 0xad, 0x8b, 0x92, 0xbd,
  0x9b, 0x7f, 0x29, 0x3d, 0xd0, 0x61, 0xda, 0x3c, 0x28, 0xa2, 0x16, 0x3e,
  0xc3, 0xc2, 0x7c, 0xbe, 0x40, 0x0a, 0x61, 0xbc, 0x5e, 0xc6, 0xbf, 0x3e,
  0xe5, 0x07, 0x1b, 0x3e, 0x22, 0xf2, 0x4c, 0xbf, 0x4f, 0xfe, 0x43, 0x3e,
  0xd2, 0xe3, 0x13, 0xbe, 0xdc, 0xde, 0xe9, 0x3d, 0x39, 0xd9, 0x26, 0xbe,
  0x29, 0x2a, 0x3e, 0x3e, 0x86, 0x9c, 0x0d, 0xbc, 0xb8, 0x2e, 0x10, 0x3d,
  0x4d, 0x7b, 0x63, 0xbe, 0x66, 0x61, 0x25, 0xbe, 0x01, 0x5b, 0x8a, 0x3e,
  0x43, 0x73, 0x8a, 0x3e, 0x9e, 0xa5, 0x41, 0x3e, 0x58, 0x8f, 0x93, 0xbe,
  0x00, 0xdb, 0x46, 0xbd, 0x90, 0x49, 0x4b, 0x3d, 0xb2, 0xeb, 0x65, 0x3e,
  0x25, 0x96, 0x98, 0xbd, 0x2c, 0xf4, 0xbd, 0x3d, 0x7a, 0x47, 0x18, 0xbe,
  0xea, 0xff, 0x3f, 0x3e, 0x76, 0x8b, 0x8c, 0xbe, 0x8f, 0x08, 0x35, 0xbd,
  0xeb, 0x7a, 0xed, 0xbd, 0xcf, 0x03, 0x71, 0x3c, 0x59, 0x1a, 0x22, 0xbf,
  0xae, 0x60, 0x67, 0x3e, 0x56, 0x39, 0x28, 0xbf, 0x27, 0x3b, 0xac, 0xbe,
  0x24, 0xb1, 0xd1, 0x3d, 0x54, 0x0e, 0x5a, 0xbe, 0xea, 0x14, 0xf9, 0xbe,
  0xc1, 0x31, 0xff, 0x3e, 0x79, 0x3e, 0xda, 0x3d, 0xb8, 0xc9, 0x51, 0x3d,
  0xc8, 0xcf, 0x9f, 0xbd, 0x5e, 0x20, 0x9c, 0x3e, 0x99, 0xab, 0x38, 0x3e,
  0x8f, 0xf6, 0x5d, 0xbe, 0x04, 0x89, 0xb3, 0x3d, 0x38, 0xa9, 0x80, 0xbe,
  0xef, 0x21, 0xdf, 0xbe, 0x60, 0xf5, 0x4b, 0xbd, 0x50, 0x32, 0x92, 0x3e,
  0x70, 0x93, 0x18, 0x3d, 0x3d, 0xa9, 0x46, 0xbe, 0x1a, 0xd8, 0xbd, 0x3e,
  0xfa, 0xe7, 0x9b, 0xbe, 0x88, 0x0a, 0x07, 0xbd, 0xb7, 0x29, 0xbb, 0xbe,
  0x79, 0xe9, 0x3e, 0xbe, 0x9b, 0xec, 0x82, 0x3e, 0x31, 0x8d, 0x15, 0xbe,
  0xe6, 0x15, 0x2d, 0x3e, 0xfa, 0x23, 0x4d, 0xbe, 0x3f, 0xc8, 0xd9, 0xbd,
  0xf9, 0x72, 0x4d, 0x3e, 0xcf, 0x30, 0x95, 0x3e, 0x12, 0xff, 0x38, 0x3e,
  0x8e, 0xa9, 0xcc, 0x3e, 0x88, 0x82, 0x4a, 0xbe, 0xeb, 0x25, 0xab, 0x3e,
  0x6f, 0xcd, 0xb1, 0x3e, 0x3f, 0x59, 0xbe, 0x3e, 0xe1, 0x31, 0xf7, 0x3e,
  0xd2, 0x1b, 0xb9, 0xbe, 0x48, 0x2c, 0x25, 0x3d, 0x16, 0x59, 0x9b, 0xbe,
  0xfb, 0x14, 0x4c, 0xbe, 0x49, 0x5a, 0x4c, 0x3e, 0xa2, 0xc5, 0x20, 0xbe,
  0xec, 0x95, 0x82, 0xbe, 0x30, 0x65, 0xe6, 0x3c, 0xea, 0xd6, 0x59, 0x3e,
  0x34, 0x39, 0xae, 0xbd, 0x41, 0x16, 0x4f, 0xbe, 0xaa, 0xb2, 0xe6, 0xbd,
  0x02, 0x40, 0x08, 0x3e, 0x71, 0xb0, 0x20, 0x3d, 0xd0, 0x06, 0x6a, 0xbe,
  0x78, 0x16, 0x9c, 0x3d, 0x1f, 0x44, 0x42, 0x3e, 0x17, 0xe9, 0x83, 0x3e,
  0xbb, 0x3c, 0x59, 0x3e, 0x34, 0x31, 0x58, 0xbe, 0x1b, 0xdc, 0x79, 0xbe,
  0x2f, 0x8a, 0xa5, 0xbc, 0x2d, 0x9a, 0x9b, 0xbe, 0x11, 0x10, 0x05, 0xbd,
  0x78, 0x02, 0x7e, 0x3e, 0x01, 0xf9, 0x65, 0xbe, 0xf6, 0x10, 0x4a, 0x3c,
  0xf2, 0xe5, 0x9f, 0x3e, 0xfc, 0x52, 0x0d, 0x3e, 0x01, 0x87, 0x32, 0x3e,
  0xac, 0x9e, 0xc6, 0x3e, 0x1e, 0x96, 0xa5, 0xbf, 0xee, 0x7e, 0x6c, 0xbd,
  0x54, 0xc4, 0xa7, 0xbe, 0x24, 0xf4, 0x00, 0x3e, 0x6a, 0x31, 0x2c, 0x3c,
  0xdb, 0x69, 0x9c, 0x3d, 0x06, 0xaf, 0xa6, 0x3c, 0x5f, 0xcd, 0xb1, 0x3e,
  0xfe, 0x94, 0x9f, 0xbe, 0x7d, 0x41, 0x81, 0xbd, 0xcd, 0x86, 0xad, 0x3e,
  0x1d, 0x71, 0x4a, 0x3d, 0x35, 0x50, 0xa1, 0xbe, 0x74, 0x0a, 0xf5, 0x3d,
  0xbd, 0x30, 0xc1, 0x3e, 0xf8, 0x62, 0xf5, 0xbd, 0xa1, 0x2b, 0xb3, 0xbe,
  0x5d, 0x60, 0x2b, 0x3e, 0x21, 0xe9, 0x83, 0x3e, 0x30, 0xf1, 0x00, 0x3e,
  0x80, 0x2f, 0xb0, 0x3c, 0x8e, 0xf7, 0x4a, 0x3e, 0x52, 0x1d, 0x10, 0x3e,
  0xfa, 0x64, 0xd5, 0x3d, 0x1d, 0x55, 0x48, 0xbe, 0xe9, 0x4e, 0xd0, 0x3d,
  0x90, 0xed, 0xa8, 0xbc, 0x67, 0x4d, 0x9c, 0x3e, 0x8d, 0xed, 0x86, 0xbe,
  0xd8, 0x0e, 0x60, 0x3e, 0xd3, 0xca, 0xf9, 0xbc, 0xc6, 0xd4, 0xac, 0xbd,
  0x45, 0x5d, 0xea, 0x3e, 0x85, 0x62, 0x85, 0x3e, 0x0b, 0x1d, 0x1a, 0xbe,
  0x1f, 0x19, 0x7d, 0xbe, 0x47, 0x00, 0xa6, 0xbf, 0xdb, 0x8b, 0xd8, 0x3e,
  0x21, 0x70, 0x61, 0xbe, 0x73, 0x35, 0x18, 0xbe, 0xb2, 0x77, 0x92, 0xbe,
  0x51, 0x1e, 0xc8, 0x3d, 0x80, 0x99, 0xb4, 0x3c, 0x7e, 0xad, 0xba, 0xbe,
  0x96, 0xca, 0x8b, 0xbe, 0xe8, 0xca, 0xb0, 0x3d, 0x7c, 0xde, 0x0a, 0xbe,
  0x9c, 0xf5, 0xd3, 0x3d, 0x82, 0xb9, 0x8c, 0xbe, 0x38, 0x05, 0x8f, 0xbd,
  0x01, 0x8f, 0x00, 0xbe, 0xb1, 0x74, 0xf0, 0x3e, 0x8c, 0x46, 0x94, 0xbd,
  0x12, 0xfd, 0x8e, 0xbe, 0xef, 0x17, 0x1f, 0x3f, 0xf4, 0x67, 0x08, 0xbf,
  0x5a, 0x48, 0xb2, 0xbb, 0xef, 0x1f, 0x00, 0x3e, 0xc0, 0x48, 0x78, 0xbc,
  0x10, 0x15, 0xd0, 0x3d, 0xe8, 0x86, 0x23, 0x3f, 0xfa, 0x97, 0xa4, 0x3e,
  0xd9, 0xf9, 0x02, 0xbc, 0x36, 0x68, 0xa7, 0x3d, 0xce, 0x82, 0x95, 0x3d,
  0x01, 0x02, 0x58, 0x3e, 0x38, 0xc7, 0xc7, 0x3d, 0x13, 0x8c, 0xa8, 0x3e,
  0x67, 0xca, 0x8e, 0xbe, 0xa0, 0x80, 0x48, 0xbd, 0xa4, 0xd5, 0xa5, 0xbe,
  0xe0, 0xa5, 0x1a, 0x3c, 0xe0, 0xff, 0x84, 0x3c, 0x28, 0xa7, 0xac, 0xbe,
  0x1a, 0x71, 0x81, 0xbe, 0xd4, 0x52, 0x1e, 0xbe, 0xf8, 0x99, 0xaa, 0x3d,
  0x36, 0xe1, 0x79, 0x3e, 0x32, 0x1a, 0xe9, 0xbd, 0x16, 0x5e, 0x79, 0x3e,
  0xbc, 0x7a, 0x01, 0x3e, 0xc7, 0xb2, 0x0d, 0xbe, 0x76, 0x02, 0xa9, 0xbe,
  0xc0, 0xce, 0x98, 0xbc, 0x77, 0xb9, 0x5a, 0xbe, 0xfc, 0x37, 0x9d, 0x3d,
  0x79, 0x76, 0xa6, 0x3e, 0x90, 0x76, 0x31, 0xbd, 0xa4, 0x65, 0xb2, 0x3d,
  0x96, 0x55, 0xa1, 0xbe, 0x38, 0x2a, 0x77, 0x3d, 0xc3, 0x5e, 0x37, 0xbe,
  0xd7, 0xd8, 0x8f, 0x3e, 0xb8, 0xc3, 0x9b, 0xbe, 0xd0, 0x73, 0xc6, 0x3d,
  0xea, 0x05, 0x72, 0x3e, 0x00, 0xd5, 0x8b, 0x3a, 0x20, 0x20, 0x6b, 0x3d,
  0x25, 0x44, 0xa5, 0x3e, 0xb4, 0x16, 0x81, 0xbe, 0xc1, 0x4a, 0x95, 0xbc,
  0x58, 0x8f, 0x05, 0xbe, 0xff, 0x3a, 0xca, 0x3e, 0x1c, 0x8f, 0xe5, 0xbd,
  0xb8, 0xb6, 0x31, 0xbd, 0x61, 0xee, 0xe5, 0x3e, 0x51, 0x7f, 0x84, 0x3e,
  0x35, 0x94, 0x99, 0x3e, 0xd4, 0x40, 0x36, 0xbe, 0x51, 0x98, 0x9e, 0x3e,
  0x92, 0x96, 0xe5, 0xbd, 0x9a, 0x73, 0x7a, 0x3e, 0x00, 0xd1, 0xa7, 0x3c,
  0x45, 0x2c, 0xc3, 0x3e, 0x38, 0xb5, 0xd3, 0xbd, 0x6c, 0x59, 0x89, 0xba,
  0xba, 0x6f, 0x34, 0xbe, 0xec, 0x4c, 0x74, 0xbe, 0x1e, 0x10, 0x9f, 0xbd,
  0x76, 0x58, 0x93, 0xbd, 0x0a, 0x08, 0xb6, 0x3d, 0xe8, 0xae, 0x46, 0x3e,
  0x60, 0x61, 0x99, 0xbe, 0xc9, 0x43, 0x69, 0xbc, 0xb5, 0x8e, 0x22, 0xbe,
  0x0f, 0x17, 0xaa, 0x3e, 0x12, 0x28, 0xc4, 0x3d, 0x9e, 0xf0, 0x12, 0xbe,
  0x50, 0xef, 0x46, 0xbf, 0x40, 0x04, 0x0e, 0x3e, 0x48, 0x3b, 0x43, 0xbd,
  0xef, 0x85, 0x8d, 0x3e, 0xd8, 0x4d, 0x83, 0x3b, 0x3d, 0xde, 0x93, 0x3e,
  0xf9, 0x17, 0x82, 0xbd, 0x30, 0x52, 0x32, 0x3d, 0x71, 0xbc, 0x9c, 0xbe,
  0x8a, 0x27, 0x4e, 0xbd, 0x80, 0xe2, 0x57, 0x3d, 0x9c, 0xe5, 0x93, 0x3e,
  0x6e, 0xa3, 0x46, 0xbe, 0x02, 0xe2, 0xa0, 0xbe, 0xb5, 0x7b, 0xa6, 0x3e,
  0x2e, 0x8e, 0x74, 0x3e, 0xe2, 0x5e, 0x5a, 0x3e, 0x9a, 0x64, 0xbc, 0x3d,
  0x2a, 0x7d, 0x48, 0x3e, 0x5a, 0x48, 0x72, 0xbe, 0xc8, 0xf1, 0x61, 0x3d,
  0xc9, 0x47, 0x93, 0x3e, 0x53, 0x8e, 0xa6, 0x3e, 0xe0, 0xa0, 0x9f, 0x3e,
  0x23, 0x4f, 0x5e, 0x3e, 0xcf, 0x41, 0x17, 0x3e, 0x7b, 0x24, 0x8b, 0xbe,
  0xc6, 0x6b, 0xa7, 0xbc, 0x1f, 0xb9, 0x61, 0xbc, 0x46, 0x4c, 0x45, 0x3e,
  0xcc, 0x00, 0xe0, 0xbd, 0x1b, 0x0c, 0x24, 0x3e, 0x00, 0x41, 0xff, 0x3e,
  0x31, 0xea, 0xf9, 0xbd, 0x58, 0x1d, 0xb2, 0xbd, 0xfc, 0xb5, 0xc7, 0xbd,
  0x24, 0x2d, 0xec, 0x3e, 0x13, 0xfb, 0xbc, 0x3d, 0xca, 0x22, 0x2d, 0x3e,
  0x5d, 0xed, 0xb2, 0x3e, 0x95, 0x60, 0x9c, 0x3e, 0x84, 0x46, 0x72, 0xbe,
  0x40, 0x0d, 0x7e, 0x3c, 0x9e, 0x73, 0xe8, 0xbd, 0x8d, 0x55, 0x61, 0xbe,
  0xfd, 0x7f, 0xb4, 0x3e, 0x60, 0x18, 0x12, 0x3e, 0x50, 0x55, 0x07, 0x3d,
  0xac, 0x69, 0xbd, 0x3d, 0xb3, 0x9b, 0xb8, 0xbd, 0x2e, 0x66, 0x52, 0xbe,
  0xc0, 0x98, 0x68, 0xbd, 0x18, 0x31, 0x9f, 0xbe, 0xda, 0x2c, 0x29, 0x3e,
  0x1f, 0xd6, 0xa0, 0xbe, 0xde, 0x7e, 0x66, 0xbd, 0xe7, 0x40, 0x7a, 0xbe,
  0xf4, 0x9a, 0xe4, 0xbe, 0x9f, 0xd9, 0xab, 0x3e, 0xce, 0x7f, 0xbd, 0xbd,
  0x00, 0x84, 0x07, 0x3b, 0x90, 0xd7, 0x03, 0xbf, 0xa0, 0x26, 0x3a, 0xbe,
  0x4a, 0x5d, 0xb1, 0xbe, 0x85, 0x9c, 0xee, 0x3e, 0x10, 0x67, 0x72, 0x3d,
  0x00, 0x72, 0xe9, 0xbc, 0xb0, 0x8c, 0x0f, 0x3d, 0xb8, 0xa8, 0x9e, 0xbc,
  0xee, 0x20, 0x88, 0xbe, 0x30, 0x18, 0x1d, 0x3e, 0xe4, 0x90, 0xa4, 0x3d,
  0xa6, 0x77, 0x2d, 0x3e, 0x42, 0x10, 0x93, 0xbe, 0x7d, 0x94, 0x3e, 0xbe,
  0x8f, 0xbc, 0xcc, 0x3d, 0xd6, 0xad, 0x4f, 0x3e, 0x62, 0xf4, 0x45, 0x3e,
  0x65, 0x54, 0x5e, 0x3e, 0xd8, 0xe1, 0xc0, 0xbd, 0x8a, 0xba, 0x17, 0x3e,
  0xd7, 0xb4, 0x38, 0x3e, 0x40, 0xe6, 0xa8, 0xbd, 0xd7, 0x48, 0xda, 0xbe,
  0xaa, 0x60, 0x25, 0x3e, 0xe2, 0x97, 0x34, 0x3e, 0x4a, 0x0b, 0x20, 0xbe,
  0xc8, 0xbc, 0x97, 0x3e, 0x93, 0x78, 0xf5, 0xbc, 0x07, 0xa2, 0xac, 0xbe,
  0x5d, 0xc5, 0xa4, 0x3e, 0xc4, 0x0b, 0x6b, 0xbe, 0x75, 0x8a, 0xb3, 0x3d,
  0x99, 0x16, 0x30, 0x3e, 0x82, 0x77, 0xae, 0x3d, 0x1f, 0xc1, 0x32, 0xbc,
  0x62, 0xa6, 0x61, 0xbf, 0xa7, 0x07, 0x87, 0x3e, 0x8e, 0xee, 0x08, 0x3e,
  0x6f, 0x89, 0x11, 0xbe, 0x92, 0x07, 0xca, 0xbd, 0x9e, 0x6b, 0x84, 0x3d,
  0xf8, 0x44, 0xa1, 0x3e, 0xc3, 0x9e, 0xa3, 0x3e, 0xdd, 0xb8, 0x20, 0xbe,
  0xf9, 0x9f, 0x06, 0x3d, 0x14, 0x1d, 0xf9, 0xbd, 0xfb, 0xac, 0xa2, 0xbb,
  0xa1, 0x6f, 0x9a, 0x3e, 0x31, 0xf6, 0xa9, 0x3e, 0x8d, 0x21, 0xbe, 0xbd,
  0x8e, 0xdc, 0x7c, 0x3e, 0xab, 0xb1, 0x9f, 0x3e, 0xed, 0x0b, 0x9d, 0x3d,
  0x33, 0x8a, 0x6b, 0xbe, 0xfb, 0xca, 0xa0, 0x3e, 0x6e, 0xae, 0x63, 0x3e,
  0x8b, 0xab, 0xaa, 0x3e, 0x85, 0x07, 0x2a, 0x3e, 0xad, 0xe0, 0xe4, 0xbc,
  0xa5, 0x36, 0xed, 0xbd, 0xf5, 0xd7, 0x1e, 0xbe, 0xba, 0x9c, 0x15, 0xbe,
  0x8a, 0x42, 0x8c, 0x3e, 0x19, 0xd5, 0x82, 0xbd, 0x2f, 0x9c, 0x6c, 0xbb,
  0xac, 0x04, 0x98, 0x3e, 0x8b, 0x0f, 0xc7, 0x3e, 0x7b, 0x2c, 0xa9, 0xbf,
  0x56, 0x00, 0x67, 0x3e, 0x0c, 0x8b, 0xcb, 0x3d, 0xc4, 0x4d, 0x5e, 0xbe,
  0xde, 0x7b, 0x3a, 0x3e, 0x2f, 0xd2, 0x85, 0xbe, 0x08, 0xb4, 0x90, 0xbe,
  0xd4, 0x4d, 0xab, 0x3d, 0xd8, 0x74, 0x90, 0x3d, 0xbd, 0x48, 0x47, 0xbe,
  0xda, 0xb2, 0x73, 0x3e, 0x0b, 0xfc, 0x9b, 0xbe, 0x16, 0x73, 0x99, 0xbe,
  0x1a, 0x85, 0x4c, 0xbe, 0x1a, 0x27, 0x97, 0xbe, 0xe2, 0xb5, 0x1c, 0x3e,
  0x6c, 0x2f, 0x56, 0xbe, 0xbe, 0x99, 0x3c, 0x3e, 0x34, 0x6a, 0x89, 0xbd,
  0x90, 0x19, 0x8c, 0x3d, 0xd2, 0x36, 0xe3, 0xbd, 0x98, 0x87, 0x31, 0xbd,
  0x7d, 0xe3, 0xb1, 0xbe, 0x7c, 0x7d, 0x9f, 0xbe, 0x88, 0xb0, 0xb9, 0xbd,
  0xd0, 0x70, 0x34, 0xbd, 0xec, 0xce, 0xae, 0xbe, 0x5d, 0x71, 0x30, 0xbe,
  0x40, 0xe1, 0x34, 0x3c, 0x00, 0xa8, 0xb2, 0x3a, 0x4c, 0x31, 0xb4, 0x3d,
  0xb7, 0x9c, 0x99, 0x3e, 0x72, 0x43, 0x55, 0x3e, 0x4d, 0x70, 0x2c, 0xbe,
  0x00, 0x00, 0x06, 0x00, 0x08, 0x00, 0x04, 0x00, 0x06, 0x00, 0x00, 0x00,
  0x04, 0x00, 0x00, 0x00, 0x40, 0x00, 0x00, 0x00, 0x6d, 0xc3, 0xf1, 0xbe,
  0x44, 0xe6, 0x59, 0x3e, 0xaf, 0x38, 0x9e, 0x3e, 0xe1, 0x88, 0x22, 0xbe,
  0xc8, 0xaf, 0x0e, 0xbf, 0xc2, 0x0b, 0xb0, 0x3e, 0x99, 0xab, 0xf6, 0xbe,
  0xa2, 0x45, 0x75, 0x3e, 0x3a, 0xeb, 0xcb, 0x3f, 0xfc, 0x71, 0xca, 0xbd,
  0xa9, 0x1d, 0x49, 0xbe, 0x1f, 0xe5, 0xc7, 0x3d, 0x1a, 0xc1, 0xcb, 0xbe,
  0xf0, 0x27, 0xcd, 0xbe, 0xe6, 0x42, 0x1e, 0xbf, 0x50, 0x6d, 0xeb, 0x3d,
  0x28, 0xfb, 0xff, 0xff, 0x2c, 0xfb, 0xff, 0xff, 0x0f, 0x00, 0x00, 0x00,
  0x4d, 0x4c, 0x49, 0x52, 0x20, 0x43, 0x6f, 0x6e, 0x76, 0x65, 0x72, 0x74,
  0x65, 0x64, 0x2e, 0x00, 0x01, 0x00, 0x00, 0x00, 0x14, 0x00, 0x00, 0x00,
  0x00, 0x00, 0x0e, 0x00, 0x18, 0x00, 0x14, 0x00, 0x10, 0x00, 0x0c, 0x00,
  0x08, 0x00, 0x04, 0x00, 0x0e, 0x00, 0x00, 0x00, 0x14, 0x00, 0x00, 0x00,
  0x1c, 0x00, 0x00, 0x00, 0xd8, 0x00, 0x00, 0x00, 0xdc, 0x00, 0x00, 0x00,
  0xe0, 0x00, 0x00, 0x00, 0x04, 0x00, 0x00, 0x00, 0x6d, 0x61, 0x69, 0x6e,
  0x00, 0x00, 0x00, 0x00, 0x03, 0x00, 0x00, 0x00, 0x80, 0x00, 0x00, 0x00,
  0x38, 0x00, 0x00, 0x00, 0x04, 0x00, 0x00, 0x00, 0x9a, 0xff, 0xff, 0xff,
  0x10, 0x00, 0x00, 0x00, 0x00, 0x00, 0x00, 0x08, 0x0c, 0x00, 0x00, 0x00,
  0x10, 0x00, 0x00, 0x00, 0xa4, 0xfb, 0xff, 0xff, 0x01, 0x00, 0x00, 0x00,
  0x09, 0x00, 0x00, 0x00, 0x03, 0x00, 0x00, 0x00, 0x08, 0x00, 0x00, 0x00,
  0x01, 0x00, 0x00, 0x00, 0x03, 0x00, 0x00, 0x00, 0xca, 0xff, 0xff, 0xff,
  0x10, 0x00, 0x00, 0x00, 0x00, 0x00, 0x00, 0x08, 0x10, 0x00, 0x00, 0x00,
  0x14, 0x00, 0x00, 0x00, 0xba, 0xff, 0xff, 0xff, 0x00, 0x00, 0x00, 0x01,
  0x01, 0x00, 0x00, 0x00, 0x08, 0x00, 0x00, 0x00, 0x03, 0x00, 0x00, 0x00,
  0x07, 0x00, 0x00, 0x00, 0x02, 0x00, 0x00, 0x00, 0x04, 0x00, 0x00, 0x00,
  0x00, 0x00, 0x0e, 0x00, 0x16, 0x00, 0x00, 0x00, 0x10, 0x00, 0x0c, 0x00,
  0x0b, 0x00, 0x04, 0x00, 0x0e, 0x00, 0x00, 0x00, 0x18, 0x00, 0x00, 0x00,
  0x00, 0x00, 0x00, 0x08, 0x18, 0x00, 0x00, 0x00, 0x1c, 0x00, 0x00, 0x00,
  0x00, 0x00, 0x06, 0x00, 0x08, 0x00, 0x07, 0x00, 0x06, 0x00, 0x00, 0x00,
  0x00, 0x00, 0x00, 0x01, 0x01, 0x00, 0x00, 0x00, 0x07, 0x00, 0x00, 0x00,
  0x03, 0x00, 0x00, 0x00, 0x00, 0x00, 0x00, 0x00, 0x06, 0x00, 0x00, 0x00,
  0x05, 0x00, 0x00, 0x00, 0x01, 0x00, 0x00, 0x00, 0x09, 0x00, 0x00, 0x00,
  0x01, 0x00, 0x00, 0x00, 0x00, 0x00, 0x00, 0x00, 0x0a, 0x00, 0x00, 0x00,
  0x84, 0x03, 0x00, 0x00, 0x2c, 0x03, 0x00, 0x00, 0xd4, 0x02, 0x00, 0x00,
  0x98, 0x02, 0x00, 0x00, 0x5c, 0x02, 0x00, 0x00, 0xfc, 0x01, 0x00, 0x00,
  0xa8, 0x01, 0x00, 0x00, 0x04, 0x01, 0x00, 0x00, 0x60, 0x00, 0x00, 0x00,
  0x04, 0x00, 0x00, 0x00, 0xba, 0xfc, 0xff, 0xff, 0x00, 0x00, 0x00, 0x01,
  0x14, 0x00, 0x00, 0x00, 0x1c, 0x00, 0x00, 0x00, 0x1c, 0x00, 0x00, 0x00,
  0x0a, 0x00, 0x00, 0x00, 0x34, 0x00, 0x00, 0x00, 0x02, 0x00, 0x00, 0x00,
  0xff, 0xff, 0xff, 0xff, 0x01, 0x00, 0x00, 0x00, 0xa4, 0xfc, 0xff, 0xff,
  0x1b, 0x00, 0x00, 0x00, 0x53, 0x74, 0x61, 0x74, 0x65, 0x66, 0x75, 0x6c,
  0x50, 0x61, 0x72, 0x74, 0x69, 0x74, 0x69, 0x6f, 0x6e, 0x65, 0x64, 0x43,
  0x61, 0x6c, 0x6c, 0x5f, 0x31, 0x3a, 0x30, 0x00, 0x02, 0x00, 0x00, 0x00,
  0x01, 0x00, 0x00, 0x00, 0x01, 0x00, 0x00, 0x00, 0x12, 0xfd, 0xff, 0xff,
  0x00, 0x00, 0x00, 0x01, 0x14, 0x00, 0x00, 0x00, 0x1c, 0x00, 0x00, 0x00,
  0x1c, 0x00, 0x00, 0x00, 0x09, 0x00, 0x00, 0x00, 0x7c, 0x00, 0x00, 0x00,
  0x02, 0x00, 0x00, 0x00, 0xff, 0xff, 0xff, 0xff, 0x10, 0x00, 0x00, 0x00,
  0xfc, 0xfc, 0xff, 0xff, 0x61, 0x00, 0x00, 0x00, 0x73, 0x65, 0x71, 0x75,
  0x65, 0x6e, 0x74, 0x69, 0x61, 0x6c, 0x5f, 0x35, 0x5f, 0x31, 0x2f, 0x64,
  0x65, 0x6e, 0x73, 0x65, 0x5f, 0x31, 0x36, 0x5f, 0x31, 0x2f, 0x4d, 0x61,
  0x74, 0x4d, 0x75, 0x6c, 0x3b, 0x73, 0x65, 0x71, 0x75, 0x65, 0x6e, 0x74,
  0x69, 0x61, 0x6c, 0x5f, 0x35, 0x5f, 0x31, 0x2f, 0x64, 0x65, 0x6e, 0x73,
  0x65, 0x5f, 0x31, 0x36, 0x5f, 0x31, 0x2f, 0x52, 0x65, 0x6c, 0x75, 0x3b,
  0x73, 0x65, 0x71, 0x75, 0x65, 0x6e, 0x74, 0x69, 0x61, 0x6c, 0x5f, 0x35,
  0x5f, 0x31, 0x2f, 0x64, 0x65, 0x6e, 0x73, 0x65, 0x5f, 0x31, 0x36, 0x5f,
  0x31, 0x2f, 0x42, 0x69, 0x61, 0x73, 0x41, 0x64, 0x64, 0x00, 0x00, 0x00,
  0x02, 0x00, 0x00, 0x00, 0x01, 0x00, 0x00, 0x00, 0x10, 0x00, 0x00, 0x00,
  0xb2, 0xfd, 0xff, 0xff, 0x00, 0x00, 0x00, 0x01, 0x14, 0x00, 0x00, 0x00,
  0x1c, 0x00, 0x00, 0x00, 0x1c, 0x00, 0x00, 0x00, 0x08, 0x00, 0x00, 0x00,
  0x7c, 0x00, 0x00, 0x00, 0x02, 0x00, 0x00, 0x00, 0xff, 0xff, 0xff, 0xff,
  0x20, 0x00, 0x00, 0x00, 0x9c, 0xfd, 0xff, 0xff, 0x61, 0x00, 0x00, 0x00,
  0x73, 0x65, 0x71, 0x75, 0x65, 0x6e, 0x74, 0x69, 0x61, 0x6c, 0x5f, 0x35,
  0x5f, 0x31, 0x2f, 0x64, 0x65, 0x6e, 0x73, 0x65, 0x5f, 0x31, 0x35, 0x5f,
  0x31, 0x2f, 0x4d, 0x61, 0x74, 0x4d, 0x75, 0x6c, 0x3b, 0x73, 0x65, 0x71,
  0x75, 0x65, 0x6e, 0x74, 0x69, 0x61, 0x6c, 0x5f, 0x35, 0x5f, 0x31, 0x2f,
  0x64, 0x65, 0x6e, 0x73, 0x65, 0x5f, 0x31, 0x35, 0x5f, 0x31, 0x2f, 0x52,
  0x65, 0x6c, 0x75, 0x3b, 0x73, 0x65, 0x71, 0x75, 0x65, 0x6e, 0x74, 0x69,
  0x61, 0x6c, 0x5f, 0x35, 0x5f, 0x31, 0x2f, 0x64, 0x65, 0x6e, 0x73, 0x65,
  0x5f, 0x31, 0x35, 0x5f, 0x31, 0x2f, 0x42, 0x69, 0x61, 0x73, 0x41, 0x64,
  0x64, 0x00, 0x00, 0x00, 0x02, 0x00, 0x00, 0x00, 0x01, 0x00, 0x00, 0x00,
  0x20, 0x00, 0x00, 0x00, 0xa6, 0xfe, 0xff, 0xff, 0x00, 0x00, 0x00, 0x01,
  0x10, 0x00, 0x00, 0x00, 0x10, 0x00, 0x00, 0x00, 0x07, 0x00, 0x00, 0x00,
  0x30, 0x00, 0x00, 0x00, 0x2c, 0xfe, 0xff, 0xff, 0x20, 0x00, 0x00, 0x00,
  0x73, 0x65, 0x71, 0x75, 0x65, 0x6e, 0x74, 0x69, 0x61, 0x6c, 0x5f, 0x35,
  0x5f, 0x31, 0x2f, 0x64, 0x65, 0x6e, 0x73, 0x65, 0x5f, 0x31, 0x35, 0x5f,
  0x31, 0x2f, 0x4d, 0x61, 0x74, 0x4d, 0x75, 0x6c, 0x00, 0x00, 0x00, 0x00,
  0x02, 0x00, 0x00, 0x00, 0x20, 0x00, 0x00, 0x00, 0x01, 0x00, 0x00, 0x00,
  0xf6, 0xfe, 0xff, 0xff, 0x00, 0x00, 0x00, 0x01, 0x10, 0x00, 0x00, 0x00,
  0x10, 0x00, 0x00, 0x00, 0x06, 0x00, 0x00, 0x00, 0x40, 0x00, 0x00, 0x00,
  0x7c, 0xfe, 0xff, 0xff, 0x30, 0x00, 0x00, 0x00, 0x73, 0x65, 0x71, 0x75,
  0x65, 0x6e, 0x74, 0x69, 0x61, 0x6c, 0x5f, 0x35, 0x5f, 0x31, 0x2f, 0x64,
  0x65, 0x6e, 0x73, 0x65, 0x5f, 0x31, 0x35, 0x5f, 0x31, 0x2f, 0x42, 0x69,
  0x61, 0x73, 0x41, 0x64, 0x64, 0x2f, 0x52, 0x65, 0x61, 0x64, 0x56, 0x61,
  0x72, 0x69, 0x61, 0x62, 0x6c, 0x65, 0x4f, 0x70, 0x00, 0x00, 0x00, 0x00,
  0x01, 0x00, 0x00, 0x00, 0x20, 0x00, 0x00, 0x00, 0x52, 0xff, 0xff, 0xff,
  0x00, 0x00, 0x00, 0x01, 0x10, 0x00, 0x00, 0x00, 0x10, 0x00, 0x00, 0x00,
  0x05, 0x00, 0x00, 0x00, 0x1c, 0x00, 0x00, 0x00, 0xd8, 0xfe, 0xff, 0xff,
  0x0f, 0x00, 0x00, 0x00, 0x61, 0x72, 0x69, 0x74, 0x68, 0x2e, 0x63, 0x6f,
  0x6e, 0x73, 0x74, 0x61, 0x6e, 0x74, 0x33, 0x00, 0x01, 0x00, 0x00, 0x00,
  0x10, 0x00, 0x00, 0x00, 0x8a, 0xff, 0xff, 0xff, 0x00, 0x00, 0x00, 0x01,
  0x10, 0x00, 0x00, 0x00, 0x10, 0x00, 0x00, 0x00, 0x04, 0x00, 0x00, 0x00,
  0x1c, 0x00, 0x00, 0x00, 0x10, 0xff, 0xff, 0xff, 0x0f, 0x00, 0x00, 0x00,
  0x61, 0x72, 0x69, 0x74, 0x68, 0x2e, 0x63, 0x6f, 0x6e, 0x73, 0x74, 0x61,
  0x6e, 0x74, 0x32, 0x00, 0x01, 0x00, 0x00, 0x00, 0x01, 0x00, 0x00, 0x00,
  0xc2, 0xff, 0xff, 0xff, 0x00, 0x00, 0x00, 0x01, 0x10, 0x00, 0x00, 0x00,
  0x10, 0x00, 0x00, 0x00, 0x03, 0x00, 0x00, 0x00, 0x1c, 0x00, 0x00, 0x00,
  0x48, 0xff, 0xff, 0xff, 0x0f, 0x00, 0x00, 0x00, 0x61, 0x72, 0x69, 0x74,
  0x68, 0x2e, 0x63, 0x6f, 0x6e, 0x73, 0x74, 0x61, 0x6e, 0x74, 0x31, 0x00,
  0x02, 0x00, 0x00, 0x00, 0x10, 0x00, 0x00, 0x00, 0x20, 0x00, 0x00, 0x00,
  0x00, 0x00, 0x16, 0x00, 0x18, 0x00, 0x14, 0x00, 0x00, 0x00, 0x10, 0x00,
  0x0c, 0x00, 0x08, 0x00, 0x00, 0x00, 0x00, 0x00, 0x00, 0x00, 0x07, 0x00,
  0x16, 0x00, 0x00, 0x00, 0x00, 0x00, 0x00, 0x01, 0x10, 0x00, 0x00, 0x00,
  0x10, 0x00, 0x00, 0x00, 0x02, 0x00, 0x00, 0x00, 0x1c, 0x00, 0x00, 0x00,
  0x9c, 0xff, 0xff, 0xff, 0x0e, 0x00, 0x00, 0x00, 0x61, 0x72, 0x69, 0x74,
  0x68, 0x2e, 0x63, 0x6f, 0x6e, 0x73, 0x74, 0x61, 0x6e, 0x74, 0x00, 0x00,
  0x02, 0x00, 0x00, 0x00, 0x01, 0x00, 0x00, 0x00, 0x10, 0x00, 0x00, 0x00,
  0x00, 0x00, 0x16, 0x00, 0x1c, 0x00, 0x18, 0x00, 0x00, 0x00, 0x14, 0x00,
  0x10, 0x00, 0x0c, 0x00, 0x00, 0x00, 0x00, 0x00, 0x08, 0x00, 0x07, 0x00,
  0x16, 0x00, 0x00, 0x00, 0x00, 0x00, 0x00, 0x01, 0x14, 0x00, 0x00, 0x00,
  0x20, 0x00, 0x00, 0x00, 0x20, 0x00, 0x00, 0x00, 0x01, 0x00, 0x00, 0x00,
  0x40, 0x00, 0x00, 0x00, 0x02, 0x00, 0x00, 0x00, 0xff, 0xff, 0xff, 0xff,
  0x01, 0x00, 0x00, 0x00, 0x04, 0x00, 0x04, 0x00, 0x04, 0x00, 0x00, 0x00,
  0x21, 0x00, 0x00, 0x00, 0x73, 0x65, 0x72, 0x76, 0x69, 0x6e, 0x67, 0x5f,
  0x64, 0x65, 0x66, 0x61, 0x75, 0x6c, 0x74, 0x5f, 0x6b, 0x65, 0x72, 0x61,
  0x73, 0x5f, 0x74, 0x65, 0x6e, 0x73, 0x6f, 0x72, 0x5f, 0x33, 0x35, 0x3a,
  0x30, 0x00, 0x00, 0x00, 0x02, 0x00, 0x00, 0x00, 0x01, 0x00, 0x00, 0x00,
  0x01, 0x00, 0x00, 0x00, 0x01, 0x00, 0x00, 0x00, 0x10, 0x00, 0x00, 0x00,
  0x0c, 0x00, 0x0c, 0x00, 0x0b, 0x00, 0x00, 0x00, 0x00, 0x00, 0x04, 0x00,
  0x0c, 0x00, 0x00, 0x00, 0x09, 0x00, 0x00, 0x00, 0x00, 0x00, 0x00, 0x09
 
};

#endif //SINE_MODEL_H