
#ifndef SINE_MODEL_H
#define SINE_MODEL_H

const unsigned int sine_model_len = 4388;

const unsigned char sine_model[4388] = {
    0x1c, 0x00, 0x00, 0x00, 0x54, 0x46, 0x4c, 0x33, 0x14,
    0x00, 0x20, 0x00, 0x1c, 0x00, 0x18, 0x00, 0x14, 0x00,
    0x10, 0x00, 0x0c, 0x00, 0x00, 0x00, 0x08, 0x00, 0x04,
    0x00, 0x14, 0x00, 0x00, 0x00, 0x1c, 0x00, 0x00, 0x00,
    0x98, 0x00, 0x00, 0x00, 0xf0, 0x00, 0x00, 0x00,
    0x94, 0x0b, 0x00, 0x00, 0xa4, 0x0b, 0x00, 0x00,
    0xd0, 0x10, 0x00, 0x00, 0x03, 0x00, 0x00, 0x00,
    0x01, 0x00, 0x00, 0x00, 0x10, 0x00, 0x00, 0x00,
    0x00, 0x00, 0x0a, 0x00, 0x10, 0x00, 0x0c, 0x00,
    0x08, 0x00, 0x04, 0x00, 0x0a, 0x00, 0x00, 0x00,
    0x0c, 0x00, 0x00, 0x00, 0x1c, 0x00, 0x00, 0x00,
    0x3c, 0x00, 0x00, 0x00, 0x0f, 0x00, 0x00, 0x00,
    0x73, 0x65, 0x72, 0x76, 0x69, 0x6e, 0x67, 0x5f,
    0x64, 0x65, 0x66, 0x61, 0x75, 0x6c, 0x74, 0x00,
    0x01, 0x00, 0x00, 0x00, 0x04, 0x00, 0x00, 0x00,
    0x90, 0xff, 0xff, 0xff, 0x09, 0x00, 0x00, 0x00,
    0x04, 0x00, 0x00, 0x00, 0x08, 0x00, 0x00, 0x00,
    0x6f, 0x75, 0x74, 0x70, 0x75, 0x74, 0x5f, 0x30,
    0x00, 0x00, 0x00, 0x00, 0x01, 0x00, 0x00, 0x00,
    0x04, 0x00, 0x00, 0x00, 0x7a, 0xf5, 0xff, 0xff,
    0x04, 0x00, 0x00, 0x00, 0x0f, 0x00, 0x00, 0x00,
    0x6b, 0x65, 0x72, 0x61, 0x73, 0x5f, 0x74, 0x65,
    0x6e, 0x73, 0x6f, 0x72, 0x5f, 0x31, 0x32, 0x00,
    0x02, 0x00, 0x00, 0x00, 0x34, 0x00, 0x00, 0x00,
    0x04, 0x00, 0x00, 0x00, 0xdc, 0xff, 0xff, 0xff,
    0x0c, 0x00, 0x00, 0x00, 0x04, 0x00, 0x00, 0x00,
    0x13, 0x00, 0x00, 0x00, 0x43, 0x4f, 0x4e, 0x56,
    0x45, 0x52, 0x53, 0x49, 0x4f, 0x4e, 0x5f, 0x4d,
    0x45, 0x54, 0x41, 0x44, 0x41, 0x54, 0x41, 0x00,
    0x08, 0x00, 0x0c, 0x00, 0x08, 0x00, 0x04, 0x00,
    0x08, 0x00, 0x00, 0x00, 0x0b, 0x00, 0x00, 0x00,
    0x04, 0x00, 0x00, 0x00, 0x13, 0x00, 0x00, 0x00,
    0x6d, 0x69, 0x6e, 0x5f, 0x72, 0x75, 0x6e, 0x74,
    0x69, 0x6d, 0x65, 0x5f, 0x76, 0x65, 0x72, 0x73,
    0x69, 0x6f, 0x6e, 0x00, 0x0d, 0x00, 0x00, 0x00,
    0xa0, 0x0a, 0x00, 0x00, 0x98, 0x0a, 0x00, 0x00,
    0x08, 0x0a, 0x00, 0x00, 0xf0, 0x01, 0x00, 0x00,
    0x60, 0x01, 0x00, 0x00, 0x4c, 0x01, 0x00, 0x00,
    0xfc, 0x00, 0x00, 0x00, 0xac, 0x00, 0x00, 0x00,
    0xa4, 0x00, 0x00, 0x00, 0x9c, 0x00, 0x00, 0x00,
    0x94, 0x00, 0x00, 0x00, 0x74, 0x00, 0x00, 0x00,
    0x04, 0x00, 0x00, 0x00, 0x2a, 0xf6, 0xff, 0xff,
    0x04, 0x00, 0x00, 0x00, 0x60, 0x00, 0x00, 0x00,
    0x0c, 0x00, 0x00, 0x00, 0x08, 0x00, 0x0e, 0x00,
    0x08, 0x00, 0x04, 0x00, 0x08, 0x00, 0x00, 0x00,
    0x10, 0x00, 0x00, 0x00, 0x28, 0x00, 0x00, 0x00,
    0x00, 0x00, 0x06, 0x00, 0x08, 0x00, 0x04, 0x00,
    0x06, 0x00, 0x00, 0x00, 0x04, 0x00, 0x00, 0x00,
    0x01, 0x00, 0x00, 0x00, 0xea, 0x03, 0x00, 0x00,
    0x0c, 0x00, 0x18, 0x00, 0x14, 0x00, 0x10, 0x00,
    0x0c, 0x00, 0x04, 0x00, 0x0c, 0x00, 0x00, 0x00,
    0xf7, 0xd5, 0x28, 0x09, 0x68, 0x22, 0x8a, 0xe7,
    0x02, 0x00, 0x00, 0x00, 0x02, 0x00, 0x00, 0x00,
    0x04, 0x00, 0x00, 0x00, 0x06, 0x00, 0x00, 0x00,
    0x32, 0x2e, 0x31, 0x39, 0x2e, 0x30, 0x00, 0x00,
    0x96, 0xf6, 0xff, 0xff, 0x04, 0x00, 0x00, 0x00,
    0x10, 0x00, 0x00, 0x00, 0x31, 0x2e, 0x35, 0x2e,
    0x30, 0x00, 0x00, 0x00, 0x00, 0x00, 0x00, 0x00,
    0x00, 0x00, 0x00, 0x00, 0x10, 0xf1, 0xff, 0xff,
    0x14, 0xf1, 0xff, 0xff, 0x18, 0xf1, 0xff, 0xff,
    0xbe, 0xf6, 0xff, 0xff, 0x04, 0x00, 0x00, 0x00,
    0x40, 0x00, 0x00, 0x00, 0x5d, 0xf5, 0x12, 0xbf,
    0x29, 0x99, 0x79, 0x3e, 0xf2, 0xfe, 0x97, 0x3e,
    0x07, 0x2a, 0x78, 0x3e, 0x4c, 0x58, 0xc2, 0x3e,
    0x90, 0xee, 0x55, 0x3d, 0x36, 0x85, 0x3d, 0xbe,
    0x71, 0x71, 0xab, 0xbe, 0x32, 0x18, 0xa2, 0xbe,
    0x18, 0x7e, 0x1f, 0x3e, 0x80, 0x2c, 0xd8, 0x3e,
    0x97, 0x9e, 0xbc, 0xbe, 0x60, 0xe4, 0xb3, 0x3e,
    0xac, 0x3f, 0x3b, 0x3e, 0x30, 0x13, 0x90, 0x3e,
    0xac, 0xc3, 0xad, 0xbd, 0x0a, 0xf7, 0xff, 0xff,
    0x04, 0x00, 0x00, 0x00, 0x40, 0x00, 0x00, 0x00,
    0x00, 0x00, 0x00, 0x00, 0x5b, 0x85, 0x46, 0xbe,
    0x2a, 0x34, 0xd8, 0xba, 0xf7, 0x2e, 0x01, 0x3f,
    0x0e, 0x27, 0xb0, 0xbe, 0xa4, 0x0a, 0xc8, 0x3e,
    0x00, 0x00, 0x00, 0x00, 0x00, 0x00, 0x00, 0x00,
    0x00, 0x00, 0x00, 0x00, 0xb5, 0xfb, 0x40, 0xbd,
    0x30, 0xb5, 0xc3, 0xbe, 0x00, 0x00, 0x00, 0x00,
    0xe2, 0xf8, 0x29, 0xbe, 0x20, 0xec, 0xcc, 0xbe,
    0x82, 0xa4, 0x18, 0xbd, 0xb3, 0x54, 0x52, 0x3f,
    0x56, 0xf7, 0xff, 0xff, 0x04, 0x00, 0x00, 0x00,
    0x04, 0x00, 0x00, 0x00, 0xf4, 0x34, 0xd2, 0xbd,
    0x66, 0xf7, 0xff, 0xff, 0x04, 0x00, 0x00, 0x00,
    0x80, 0x00, 0x00, 0x00, 0x2f, 0xee, 0x0f, 0xbe,
    0xf6, 0xb1, 0x24, 0xbd, 0xb5, 0x70, 0x87, 0xbb,
    0x5d, 0x04, 0xcb, 0x3e, 0x20, 0xb9, 0xec, 0x3d,
    0x32, 0x42, 0xb6, 0xbd, 0x7c, 0xf5, 0xc4, 0x3e,
    0xc3, 0xf7, 0x8d, 0x3d, 0x24, 0xaa, 0x60, 0xbe,
    0x96, 0x17, 0x97, 0x3e, 0x7d, 0x2f, 0x26, 0xbc,
    0xfe, 0x2f, 0xad, 0x3d, 0x7c, 0x23, 0x80, 0xbc,
    0x02, 0x06, 0xf8, 0xbd, 0x2e, 0x7c, 0xb6, 0x3d,
    0xd3, 0x29, 0x5c, 0x3d, 0x33, 0x82, 0x95, 0xbd,
    0xe9, 0x4d, 0xaf, 0xbd, 0xee, 0xce, 0xed, 0x3d,
    0x27, 0x20, 0x25, 0xbe, 0x00, 0x00, 0x00, 0x00,
    0x22, 0x4a, 0x90, 0x3d, 0xc1, 0x2a, 0x04, 0xbf,
    0x00, 0x00, 0x00, 0x00, 0x14, 0x23, 0x0f, 0x3e,
    0x80, 0x55, 0x8e, 0x3e, 0x30, 0xaf, 0xc4, 0x3e,
    0xe6, 0x88, 0xd5, 0x3d, 0xeb, 0xff, 0xaf, 0x3e,
    0x00, 0x00, 0x00, 0x00, 0xe8, 0x2b, 0x03, 0xbd,
    0x3d, 0x61, 0x8d, 0x3c, 0xf2, 0xf7, 0xff, 0xff,
    0x04, 0x00, 0x00, 0x00, 0x00, 0x08, 0x00, 0x00,
    0xf2, 0x1c, 0x79, 0x3e, 0x92, 0x9e, 0x1a, 0x3e,
    0x0c, 0xb1, 0x1d, 0x3d, 0xf1, 0xbf, 0x1f, 0x3e,
    0xc1, 0xac, 0x04, 0x3d, 0x7a, 0xd8, 0xd2, 0xbe,
    0x41, 0xf8, 0x81, 0x3e, 0xb8, 0x8f, 0x93, 0xbd,
    0x38, 0xb7, 0xe1, 0x3d, 0x2d, 0xb1, 0x5c, 0xbe,
    0x91, 0x86, 0x21, 0xbe, 0x11, 0xf3, 0x90, 0x3e,
    0xd2, 0x89, 0x86, 0x3e, 0xc8, 0x2e, 0xe2, 0x3b,
    0xcc, 0xe3, 0x6e, 0x3e, 0xb8, 0x6b, 0x81, 0xbf,
    0xbb, 0x33, 0xaa, 0xbe, 0x21, 0x53, 0x9f, 0x3e,
    0x9a, 0xd4, 0x8b, 0xbe, 0xce, 0x4f, 0x6d, 0xbd,
    0x82, 0x5e, 0x6f, 0x3e, 0xf0, 0x51, 0x72, 0x3d,
    0xc0, 0xd4, 0xee, 0xbb, 0x2d, 0xb6, 0xb0, 0x3e,
    0x84, 0xb3, 0x07, 0x3e, 0x0d, 0xfa, 0xfa, 0xbd,
    0x48, 0x20, 0x7b, 0x3d, 0x00, 0xb4, 0x6d, 0xbb,
    0x2a, 0x29, 0xb4, 0xbe, 0xa7, 0x9c, 0xae, 0x3e,
    0xef, 0x08, 0x5f, 0xbe, 0x43, 0x3e, 0x6a, 0xbc,
    0x00, 0xae, 0xcc, 0xbc, 0xe4, 0xa6, 0xa6, 0xbe,
    0xb8, 0x22, 0x6b, 0xbe, 0xda, 0x28, 0x88, 0xbc,
    0x8a, 0x6b, 0x7f, 0x3e, 0xbd, 0xb3, 0xd5, 0x3d,
    0x88, 0x03, 0xca, 0xbd, 0x4b, 0x51, 0xad, 0x3e,
    0x56, 0xdc, 0x76, 0x3e, 0x66, 0x14, 0x3b, 0x3e,
    0x56, 0x89, 0x2b, 0x3e, 0x00, 0xe4, 0xe7, 0x3d,
    0xd2, 0xf8, 0x49, 0xbe, 0x40, 0xfb, 0x1c, 0x3d,
    0xc0, 0xfe, 0xf5, 0xbd, 0x04, 0x57, 0x70, 0xbe,
    0x4d, 0xfd, 0x87, 0x3e, 0x20, 0xe3, 0x06, 0x3d,
    0xa3, 0x40, 0x4c, 0xbe, 0x8e, 0x0b, 0x98, 0xbd,
    0x02, 0x75, 0x11, 0x3d, 0xb4, 0xf6, 0xd9, 0xbd,
    0x7e, 0xed, 0x60, 0x3e, 0xef, 0x73, 0x15, 0xbe,
    0x7c, 0x05, 0xa6, 0xbd, 0x3e, 0x28, 0x76, 0xbd,
    0xad, 0x79, 0x97, 0xbe, 0x8c, 0xaa, 0xa6, 0xbe,
    0x4a, 0x6a, 0x8b, 0xbe, 0xc0, 0x6b, 0x25, 0xbf,
    0xc5, 0x19, 0x31, 0xbe, 0x20, 0x9a, 0x35, 0x3f,
    0x96, 0x7b, 0x9a, 0xbe, 0x43, 0x27, 0x7b, 0xbe,
    0xf5, 0xa5, 0xdc, 0xbe, 0xbf, 0xce, 0x8d, 0xbe,
    0x07, 0x59, 0x48, 0xbf, 0xb8, 0x14, 0x3f, 0xbc,
    0xea, 0xeb, 0x1e, 0x3e, 0xcb, 0x5d, 0x86, 0xbe,
    0xe6, 0x27, 0x08, 0xbe, 0xe1, 0x4e, 0x2f, 0x3e,
    0x30, 0x2b, 0x3e, 0xbf, 0x46, 0x2a, 0x93, 0xbe,
    0xd6, 0x35, 0xc6, 0x3d, 0xdb, 0xea, 0xf5, 0x3d,
    0xe0, 0xb0, 0xc8, 0xbe, 0x13, 0x27, 0xec, 0x3e,
    0x28, 0xfa, 0x31, 0xbd, 0xef, 0x97, 0xaa, 0x3e,
    0x81, 0xdb, 0x1e, 0xbe, 0xa6, 0xb9, 0x9d, 0x3d,
    0x89, 0xa6, 0xfd, 0x3d, 0x46, 0x62, 0x2c, 0xbe,
    0x70, 0xab, 0x2d, 0xbd, 0xe3, 0x20, 0x98, 0x3e,
    0x68, 0x5b, 0x86, 0xbe, 0x18, 0x10, 0x87, 0xbe,
    0xc5, 0x2a, 0x96, 0x3e, 0xb3, 0x41, 0xa1, 0x3e,
    0xb5, 0x5d, 0x95, 0x3d, 0x8b, 0xcf, 0x68, 0xbe,
    0xd9, 0x27, 0x5e, 0x3e, 0x24, 0xe1, 0x93, 0xbe,
    0xe6, 0xfb, 0x9d, 0xbe, 0xaa, 0x1e, 0xbd, 0x3d,
    0xf9, 0x28, 0xf0, 0x3d, 0x72, 0xa2, 0x99, 0x3d,
    0xad, 0xae, 0x0e, 0xbf, 0x1e, 0x4f, 0x15, 0xbf,
    0x9a, 0xf3, 0x97, 0xbe, 0x95, 0xf0, 0x0d, 0xbe,
    0x81, 0xe9, 0x17, 0xbe, 0x77, 0x3b, 0x4b, 0xbe,
    0x62, 0xbc, 0x15, 0xbf, 0x94, 0x30, 0xa7, 0xbe,
    0x5b, 0x9d, 0x61, 0xbd, 0x5c, 0xbc, 0x12, 0x3e,
    0xf1, 0x07, 0x20, 0x3d, 0x94, 0x1c, 0xeb, 0x3e,
    0x94, 0x7b, 0xd0, 0x3d, 0x7e, 0x4a, 0x0c, 0x3e,
    0x19, 0x8d, 0x4a, 0x3d, 0xfb, 0xc2, 0xae, 0x3e,
    0x77, 0x4b, 0x42, 0x3c, 0xd5, 0xf9, 0x00, 0x3e,
    0x12, 0x08, 0x38, 0x3e, 0x34, 0x87, 0xdd, 0x3d,
    0x04, 0xf1, 0x9c, 0xbd, 0x12, 0xc6, 0x66, 0x3e,
    0x97, 0x96, 0x3c, 0x3e, 0x3d, 0xab, 0x66, 0xbe,
    0xe0, 0x2d, 0x16, 0xbe, 0x76, 0xc8, 0x76, 0xbe,
    0x2f, 0xb7, 0x6b, 0xbe, 0x83, 0xdc, 0xdd, 0x3e,
    0xa0, 0x18, 0x06, 0xbd, 0x81, 0x4c, 0xc2, 0x3e,
    0x51, 0x94, 0xa8, 0x3e, 0x5b, 0xb1, 0x8a, 0xbe,
    0xca, 0x76, 0x15, 0xbe, 0x64, 0xc3, 0x02, 0xbe,
    0x54, 0x1f, 0xd7, 0xbd, 0x44, 0x43, 0xfc, 0xbd,
    0xd6, 0xc7, 0x77, 0x3e, 0x17, 0xa2, 0x76, 0x3e,
    0xcc, 0x56, 0xaf, 0x3e, 0x5f, 0xf3, 0x5c, 0xbe,
    0x78, 0x24, 0x8d, 0xbd, 0x36, 0x76, 0xd5, 0x3e,
    0xdd, 0xce, 0x8d, 0xbe, 0x75, 0xae, 0x96, 0xbf,
    0x97, 0x75, 0x4c, 0xbe, 0x5b, 0x91, 0x59, 0xbe,
    0xa6, 0x74, 0xa6, 0xbd, 0x91, 0x15, 0xb9, 0x3e,
    0x4e, 0x33, 0xf3, 0xbe, 0x8b, 0x0b, 0xad, 0x3e,
    0xb2, 0x35, 0x19, 0x3e, 0xc0, 0xe8, 0x57, 0xbc,
    0xf0, 0x62, 0xfe, 0x3c, 0xcc, 0xed, 0xf1, 0xbe,
    0x76, 0x50, 0x25, 0x3e, 0xd1, 0xf5, 0x87, 0xbe,
    0xcf, 0x13, 0x9a, 0xbd, 0x7b, 0x64, 0x12, 0xbf,
    0xc0, 0xa4, 0xb4, 0x3b, 0x8d, 0x36, 0xb6, 0x3e,
    0x9c, 0x97, 0x87, 0x3d, 0xe0, 0x98, 0xb3, 0xbd,
    0x1b, 0x92, 0x2d, 0xbf, 0x80, 0x67, 0xff, 0xbd,
    0x58, 0xd5, 0x1f, 0x3d, 0xe9, 0x9c, 0x2e, 0xbe,
    0x60, 0xb0, 0x6c, 0x3c, 0x74, 0xbb, 0x5a, 0xbe,
    0xa0, 0x32, 0xe0, 0x3c, 0xb3, 0xf1, 0x5e, 0xbe,
    0x16, 0xfa, 0x66, 0x3e, 0x5a, 0x7a, 0x8f, 0xbe,
    0x3e, 0x0a, 0x50, 0x3e, 0x61, 0x9e, 0x0d, 0xbe,
    0x13, 0x44, 0x94, 0xbe, 0x39, 0x08, 0x91, 0x3e,
    0x28, 0x76, 0x67, 0xbe, 0x8f, 0x87, 0x47, 0x3e,
    0xb1, 0xaf, 0xae, 0x3e, 0x19, 0xba, 0x94, 0xbd,
    0x0d, 0x08, 0x9a, 0xbe, 0xb7, 0xc5, 0x48, 0x3b,
    0x38, 0xb3, 0x77, 0xbd, 0x1c, 0x87, 0xea, 0xbd,
    0x80, 0xdb, 0x33, 0xbe, 0x87, 0xce, 0xdf, 0x3d,
    0xe4, 0xb5, 0x93, 0x3e, 0x1c, 0x6a, 0x46, 0xbe,
    0x43, 0x92, 0x1b, 0x3d, 0x97, 0x19, 0x97, 0xbd,
    0x7c, 0x9d, 0x9c, 0x3e, 0xd9, 0xb3, 0x25, 0x3f,
    0x7c, 0xfb, 0xb1, 0xbd, 0xeb, 0x3f, 0x77, 0xbd,
    0x29, 0xca, 0x32, 0x3e, 0x3a, 0x95, 0x89, 0xbe,
    0x46, 0x0c, 0x36, 0x3e, 0x92, 0x14, 0x37, 0x3d,
    0x7a, 0xf9, 0x3a, 0x3e, 0xae, 0x27, 0x4b, 0xbe,
    0x77, 0x12, 0x8b, 0x3e, 0xd4, 0xc2, 0x9c, 0xbe,
    0xdc, 0x5a, 0xbd, 0xbd, 0xd5, 0xb6, 0x8d, 0x3e,
    0xce, 0x8d, 0x62, 0xbe, 0x98, 0xf8, 0x4d, 0x3d,
    0x37, 0xb4, 0x09, 0x3e, 0x2f, 0x31, 0xd3, 0xbd,
    0xee, 0xcd, 0x49, 0x3e, 0xb0, 0x70, 0x7c, 0x3e,
    0x78, 0x7f, 0x92, 0x3e, 0xd8, 0x1d, 0xb0, 0xbe,
    0x91, 0x43, 0x80, 0x3e, 0x6e, 0x92, 0x85, 0xbe,
    0x28, 0xbd, 0x6f, 0xbe, 0x50, 0x22, 0x92, 0xbe,
    0x69, 0x07, 0x55, 0xbe, 0x93, 0x92, 0x90, 0xbe,
    0x67, 0xae, 0x17, 0x3e, 0xf1, 0xef, 0x88, 0x3e,
    0x41, 0x97, 0x9b, 0xbe, 0x8b, 0xe3, 0xd7, 0x3e,
    0x8a, 0xda, 0x9e, 0x3e, 0x01, 0x2d, 0xc9, 0xbe,
    0x31, 0x7b, 0x63, 0xbe, 0xb0, 0x86, 0x8a, 0xbe,
    0x4d, 0x23, 0x04, 0x3e, 0x15, 0x32, 0x9f, 0x3e,
    0xd0, 0x95, 0xa2, 0x3e, 0xce, 0xc9, 0x87, 0x3e,
    0xb4, 0xf0, 0x93, 0xbe, 0x0b, 0xae, 0x89, 0x3e,
    0x50, 0xfa, 0xa9, 0x3c, 0xf9, 0xd6, 0x8d, 0x3e,
    0xf6, 0xfa, 0x6e, 0xbe, 0x06, 0x01, 0x49, 0x3e,
    0xea, 0xb7, 0xea, 0x3d, 0x61, 0x64, 0x49, 0x3e,
    0x7f, 0x05, 0x96, 0xbe, 0x4a, 0x9f, 0x0b, 0x3f,
    0xad, 0x3d, 0xb0, 0xbe, 0xe1, 0x49, 0x4a, 0x3e,
    0x40, 0x81, 0x13, 0xbd, 0xbb, 0x66, 0xc6, 0x3d,
    0xbd, 0x13, 0x9a, 0x3e, 0x3b, 0xa4, 0x47, 0x3e,
    0x86, 0xf6, 0x51, 0xbe, 0x98, 0xc5, 0x07, 0x3e,
    0xbe, 0x4f, 0x26, 0x3e, 0x99, 0xf4, 0xad, 0xbe,
    0xa2, 0x52, 0x4a, 0xbc, 0xa0, 0xec, 0xab, 0x3c,
    0xe5, 0x1e, 0xde, 0x3d, 0x8f, 0x1c, 0x54, 0x3e,
    0x25, 0xb2, 0x22, 0xbe, 0xae, 0x64, 0x21, 0x3f,
    0x26, 0x02, 0x27, 0xbe, 0x03, 0x19, 0xc5, 0xbc,
    0x32, 0x0f, 0x77, 0x3d, 0x7b, 0x0c, 0x92, 0x3e,
    0x13, 0xc8, 0x07, 0xbe, 0xd6, 0x5a, 0x5b, 0xbe,
    0x4d, 0xe7, 0xa2, 0x3e, 0xa8, 0xec, 0xc7, 0x3d,
    0x48, 0xd4, 0x8f, 0x3d, 0x65, 0xf6, 0xa1, 0xbe,
    0x6b, 0x98, 0x3f, 0x3e, 0x20, 0xe7, 0x05, 0xbd,
    0xde, 0x76, 0x24, 0xbe, 0xbf, 0xc0, 0x49, 0x3e,
    0x8a, 0xfb, 0x44, 0xbe, 0xf3, 0x33, 0x2f, 0x3e,
    0x3f, 0x41, 0x8a, 0x3e, 0x96, 0xa7, 0x6c, 0x3e,
    0x9c, 0x54, 0x1d, 0x3e, 0x9c, 0x95, 0xe7, 0xbd,
    0xde, 0xf8, 0xc3, 0x3e, 0xc0, 0x90, 0x74, 0x3e,
    0x80, 0x4d, 0x8a, 0x3d, 0x7d, 0xed, 0xac, 0x3e,
    0x04, 0x58, 0x6f, 0xbe, 0x02, 0x9c, 0x1b, 0xbe,
    0x78, 0x71, 0x98, 0xbe, 0xb8, 0xfb, 0x46, 0x3d,
    0x70, 0x21, 0x6f, 0xbd, 0xba, 0xe5, 0x3c, 0xbd,
    0xa8, 0x54, 0x59, 0x3e, 0xcc, 0xb1, 0x20, 0xbf,
    0xfd, 0xf4, 0x85, 0x3e, 0x39, 0xbf, 0xe7, 0xbe,
    0x53, 0x86, 0xe8, 0xbe, 0x64, 0x42, 0x74, 0xbc,
    0x2a, 0x22, 0x43, 0xbe, 0x45, 0x12, 0x8b, 0xbd,
    0x86, 0x8b, 0xb2, 0xbe, 0x10, 0x4d, 0xd0, 0x3c,
    0x98, 0xc7, 0xb6, 0x3d, 0x4d, 0xbb, 0xd1, 0xbf,
    0x44, 0x61, 0xaf, 0x3d, 0x39, 0xbf, 0x8c, 0xbe,
    0x0f, 0x55, 0xb7, 0xbf, 0x3c, 0x48, 0xf8, 0xbd,
    0x35, 0x76, 0x26, 0xbf, 0xf6, 0x68, 0x43, 0x3e,
    0x4d, 0x13, 0xa7, 0x3e, 0xcc, 0x2b, 0x2d, 0xbd,
    0xb1, 0x4f, 0xdb, 0x3a, 0xad, 0xc2, 0x1c, 0x3e,
    0x47, 0xb3, 0x95, 0x3e, 0x33, 0xa9, 0xd8, 0xbd,
    0xfc, 0xd2, 0x8d, 0xbe, 0x8a, 0x4a, 0x35, 0x3e,
    0x42, 0x15, 0x52, 0xbe, 0x9f, 0x51, 0xa6, 0xbc,
    0x3f, 0x2f, 0x5e, 0x3e, 0x7a, 0xf2, 0x0a, 0xbe,
    0xa6, 0xba, 0x76, 0x3e, 0x19, 0x49, 0xc8, 0x3e,
    0x7a, 0x2a, 0x2b, 0xbe, 0x8f, 0x58, 0x8d, 0xbf,
    0x4e, 0xb5, 0x53, 0x3e, 0xf2, 0x8e, 0x7d, 0xbe,
    0x28, 0x31, 0xe2, 0x3d, 0xf1, 0xe6, 0x8a, 0xbe,
    0xc4, 0xb9, 0xe8, 0x3d, 0x96, 0xe7, 0x2b, 0x3e,
    0xfe, 0x2d, 0x56, 0x3e, 0xf0, 0x99, 0x88, 0x3c,
    0x65, 0x94, 0xb1, 0x3e, 0x2a, 0xca, 0xad, 0xbe,
    0xbd, 0x0b, 0x98, 0x3e, 0xc8, 0x30, 0x83, 0xbd,
    0x32, 0xc6, 0xa7, 0xbe, 0x3d, 0xd9, 0xa4, 0x3e,
    0x80, 0xc0, 0x7c, 0xbd, 0x36, 0x68, 0x80, 0xbe,
    0x0b, 0x79, 0x9d, 0x3e, 0x20, 0xb8, 0x78, 0xbe,
    0xfe, 0xee, 0xee, 0x3d, 0x7c, 0xda, 0x6d, 0x3e,
    0x31, 0x85, 0xa9, 0x3d, 0x8a, 0x42, 0x4d, 0x3e,
    0x50, 0x33, 0xef, 0xbd, 0xba, 0x67, 0x6a, 0x3e,
    0x9a, 0xcc, 0x38, 0x3e, 0xe3, 0x0f, 0xa0, 0x3e,
    0x67, 0x7b, 0xae, 0xba, 0xf2, 0xa6, 0x13, 0x3e,
    0xfc, 0xd1, 0x13, 0x3e, 0x78, 0x3a, 0xce, 0xbe,
    0x0b, 0xab, 0x00, 0x3e, 0xcb, 0xa6, 0x36, 0x3f,
    0x6e, 0x02, 0xf4, 0xbd, 0x01, 0x73, 0x44, 0x3e,
    0xa3, 0x46, 0x86, 0xbe, 0xb4, 0x1f, 0x1a, 0x3d,
    0x51, 0xdb, 0x32, 0xbd, 0x33, 0xf8, 0x9e, 0xbd,
    0xb1, 0x60, 0xb0, 0x3e, 0x39, 0x0f, 0x9e, 0xbe,
    0x31, 0xe5, 0xa4, 0xbe, 0x13, 0xe5, 0x9d, 0x3e,
    0xc5, 0x13, 0xba, 0x3e, 0x5c, 0x2c, 0xb4, 0xbd,
    0xdb, 0xce, 0xbe, 0x3e, 0x73, 0xaa, 0x96, 0x3e,
    0x4a, 0xb3, 0x87, 0xbe, 0xcf, 0xce, 0xbc, 0xbf,
    0xb9, 0xfe, 0xa6, 0x3e, 0xc5, 0x02, 0xa9, 0xbe,
    0x2b, 0x4c, 0x87, 0x3e, 0x94, 0xf1, 0x7a, 0xbe,
    0x9f, 0xf9, 0xa1, 0x3e, 0xee, 0xd2, 0x7e, 0xbe,
    0xfa, 0x2a, 0x35, 0x3e, 0x7e, 0xf5, 0x7e, 0xbe,
    0xf9, 0xea, 0x9b, 0xbe, 0x84, 0x83, 0xdf, 0x3d,
    0xb0, 0x6a, 0x7c, 0x3d, 0x97, 0x3a, 0x9c, 0xbe,
    0xbe, 0x6d, 0xd5, 0xbd, 0x24, 0x28, 0x08, 0x3e,
    0x0f, 0xd3, 0x8d, 0xbe, 0x6a, 0xc3, 0x17, 0x3e,
    0x44, 0x1d, 0x89, 0xbe, 0x8f, 0xd8, 0x79, 0x3e,
    0x30, 0x3d, 0x84, 0xbe, 0x34, 0xf1, 0xd8, 0x3e,
    0x7c, 0x29, 0x69, 0x3e, 0xfa, 0x8c, 0x54, 0x3d,
    0x2a, 0xf9, 0x29, 0x3e, 0x9e, 0xb9, 0xda, 0xbd,
    0xd5, 0xa3, 0x9f, 0xbe, 0x8b, 0x6b, 0x78, 0x3e,
    0x53, 0x38, 0x1d, 0xbc, 0xfa, 0xd5, 0x80, 0xbe,
    0x53, 0x9d, 0x3a, 0xbe, 0x71, 0x62, 0x50, 0x3e,
    0xf3, 0xe1, 0x99, 0xbe, 0x31, 0xd8, 0xbc, 0x3e,
    0x96, 0xad, 0x50, 0xbe, 0xb3, 0xd4, 0xb2, 0x3e,
    0xea, 0x4c, 0x9e, 0x3d, 0xe9, 0xc8, 0x8e, 0x3e,
    0x47, 0xd2, 0x18, 0xbd, 0xe4, 0xe4, 0x7d, 0x3e,
    0x64, 0x09, 0xb6, 0xbd, 0x80, 0x7f, 0x97, 0x3b,
    0x53, 0x2e, 0x44, 0xbe, 0xe2, 0x6f, 0x28, 0xbe,
    0xea, 0x8b, 0xf2, 0xbe, 0x72, 0xbc, 0x52, 0xbe,
    0xb7, 0xaa, 0xc0, 0xbe, 0xa5, 0x49, 0x2a, 0xbf,
    0x2a, 0x00, 0x93, 0x3d, 0x12, 0xe6, 0x34, 0x3f,
    0xe3, 0x55, 0x88, 0x3e, 0x24, 0x5f, 0xdd, 0x3b,
    0x1c, 0x55, 0xea, 0x3c, 0xd7, 0xb9, 0x0a, 0xbf,
    0xc8, 0xf3, 0x3b, 0xbf, 0x07, 0xf4, 0xbd, 0xbe,
    0x68, 0x51, 0xad, 0x3d, 0x36, 0x85, 0x19, 0x3e,
    0xce, 0xb4, 0x4e, 0x3e, 0xc2, 0x18, 0xa7, 0xbe,
    0x84, 0xe2, 0x21, 0xbf, 0x69, 0x71, 0x4d, 0xbe,
    0x6f, 0x37, 0x7b, 0xbd, 0x5b, 0xba, 0x85, 0x3e,
    0x1d, 0x03, 0x87, 0xbe, 0x17, 0x63, 0x42, 0x3f,
    0x40, 0xb9, 0x98, 0x3b, 0xdf, 0x57, 0xff, 0xbd,
    0x32, 0xd1, 0xcf, 0x3d, 0xfd, 0x29, 0x09, 0x3c,
    0x23, 0xaf, 0x57, 0xbe, 0xdd, 0x7f, 0x68, 0x3e,
    0xb9, 0x9d, 0x92, 0x3e, 0x1f, 0x08, 0x91, 0x3e,
    0x08, 0x45, 0x3d, 0xbe, 0x48, 0x2d, 0x12, 0xbe,
    0xbc, 0xf3, 0x3e, 0x3e, 0x44, 0x05, 0x8c, 0xbe,
    0x76, 0x9c, 0x61, 0xbe, 0xc1, 0xee, 0x5d, 0x3d,
    0xd8, 0x4d, 0x9f, 0x3e, 0x27, 0x9e, 0xad, 0x3e,
    0x98, 0x03, 0x99, 0x3d, 0x5b, 0xd9, 0x8a, 0xbe,
    0x52, 0x24, 0x90, 0x3e, 0x27, 0x6b, 0x3d, 0x3e,
    0xbe, 0xe2, 0x9c, 0xbe, 0xd8, 0x46, 0xb6, 0xbd,
    0x82, 0x86, 0x0f, 0x3e, 0x2e, 0x9e, 0x5a, 0x3e,
    0x1e, 0xe3, 0xb2, 0xbe, 0xa4, 0xd5, 0x85, 0xbe,
    0xa3, 0x1f, 0xa3, 0xbe, 0x69, 0x67, 0xb1, 0x3e,
    0x88, 0xec, 0x8a, 0x3d, 0x60, 0xc7, 0x78, 0xbe,
    0xc7, 0x1e, 0xa3, 0x3d, 0x1f, 0x2a, 0x64, 0x3f,
    0xe0, 0x2a, 0x05, 0xbe, 0x10, 0xd1, 0x17, 0xbe,
    0x5a, 0x58, 0x62, 0xbe, 0xc0, 0x6c, 0x7a, 0xbe,
    0x28, 0xc9, 0x85, 0xbd, 0x2d, 0x50, 0x9e, 0x3e,
    0xb2, 0xd0, 0x60, 0x3e, 0x45, 0x9f, 0xb0, 0x3e,
    0x48, 0xdc, 0xbe, 0xbd, 0x78, 0xa9, 0x03, 0xbd,
    0xef, 0x3f, 0x9a, 0x3e, 0x04, 0x74, 0x8e, 0xbd,
    0x92, 0xc3, 0x8b, 0xbe, 0xb4, 0x09, 0x06, 0x3e,
    0x86, 0x9d, 0x25, 0x3e, 0x94, 0x33, 0xef, 0xbd,
    0xc0, 0x55, 0x55, 0xbd, 0xe8, 0x30, 0x97, 0xbd,
    0x5d, 0x1c, 0xb6, 0xbe, 0xd7, 0x41, 0xa9, 0x3e,
    0xec, 0xaf, 0x73, 0xbe, 0x4d, 0x68, 0x91, 0x3d,
    0x86, 0x7c, 0x7e, 0x3e, 0xe7, 0x5f, 0xa2, 0xbe,
    0x78, 0x72, 0x6f, 0xbe, 0x4d, 0xc2, 0xff, 0x3d,
    0xb5, 0x67, 0xa4, 0xbc, 0x3c, 0x3b, 0x04, 0xbe,
    0xe4, 0x03, 0x9a, 0xbe, 0xf8, 0x66, 0xa8, 0xbd,
    0x24, 0x7e, 0x06, 0xbe, 0x60, 0x03, 0x50, 0xbe,
    0xbc, 0xc3, 0x9b, 0xbd, 0xa8, 0x17, 0x96, 0xbe,
    0x8e, 0x87, 0xbe, 0xbe, 0x89, 0x6e, 0x2b, 0x3e,
    0xfd, 0x9c, 0x81, 0x3e, 0x46, 0xfc, 0x48, 0xbe,
    0x3b, 0x97, 0xa0, 0xbe, 0x78, 0x91, 0x0f, 0x3d,
    0x14, 0x25, 0x20, 0xbe, 0xab, 0x24, 0x9b, 0xbd,
    0xdf, 0x4f, 0x34, 0x3e, 0x79, 0x98, 0xae, 0x3e,
    0xee, 0xf9, 0x5c, 0x3d, 0x5e, 0xbb, 0x94, 0x3e,
    0x01, 0xdc, 0x2a, 0xbe, 0x73, 0x5f, 0x32, 0xbe,
    0x00, 0x00, 0x06, 0x00, 0x08, 0x00, 0x04, 0x00,
    0x06, 0x00, 0x00, 0x00, 0x04, 0x00, 0x00, 0x00,
    0x80, 0x00, 0x00, 0x00, 0x34, 0x1a, 0xf4, 0x3e,
    0x93, 0x68, 0xb2, 0xbe, 0xdd, 0x6a, 0xff, 0xbc,
    0x93, 0x76, 0x17, 0xbf, 0x75, 0xa7, 0x4d, 0xbf,
    0x67, 0x56, 0x91, 0x3e, 0x52, 0xf2, 0x55, 0xbf,
    0x33, 0x42, 0x4e, 0xbe, 0x64, 0x77, 0x52, 0x3f,
    0xe4, 0xc6, 0x83, 0x3f, 0x70, 0x7d, 0x36, 0x3f,
    0x57, 0x1b, 0x9e, 0xbd, 0x33, 0x13, 0x80, 0x3e,
    0x26, 0x80, 0x0a, 0x3f, 0x47, 0x7a, 0x78, 0xbe,
    0x32, 0x37, 0x21, 0xbe, 0x02, 0xa4, 0xfd, 0x3d,
    0x84, 0x74, 0xc7, 0x3e, 0xef, 0x70, 0x64, 0xbf,
    0xce, 0xd4, 0x63, 0x3e, 0x00, 0xda, 0x5a, 0x3a,
    0x6e, 0x8b, 0xa3, 0xbe, 0xac, 0xbd, 0xe8, 0x3e,
    0x40, 0x77, 0xbd, 0xbb, 0xd4, 0x7a, 0x64, 0xbe,
    0xfa, 0xd8, 0x7a, 0x3f, 0x21, 0x56, 0x51, 0xbf,
    0x87, 0xbd, 0x6f, 0xbe, 0xc8, 0x04, 0x71, 0x3f,
    0xb5, 0xcc, 0x37, 0xbe, 0xcb, 0x03, 0x0e, 0x3b,
    0x72, 0xa6, 0x87, 0x3e, 0xf0, 0xfa, 0xff, 0xff,
    0xf4, 0xfa, 0xff, 0xff, 0x0f, 0x00, 0x00, 0x00,
    0x4d, 0x4c, 0x49, 0x52, 0x20, 0x43, 0x6f, 0x6e,
    0x76, 0x65, 0x72, 0x74, 0x65, 0x64, 0x2e, 0x00,
    0x01, 0x00, 0x00, 0x00, 0x14, 0x00, 0x00, 0x00,
    0x00, 0x00, 0x0e, 0x00, 0x18, 0x00, 0x14, 0x00,
    0x10, 0x00, 0x0c, 0x00, 0x08, 0x00, 0x04, 0x00,
    0x0e, 0x00, 0x00, 0x00, 0x14, 0x00, 0x00, 0x00,
    0x1c, 0x00, 0x00, 0x00, 0xd8, 0x00, 0x00, 0x00,
    0xdc, 0x00, 0x00, 0x00, 0xe0, 0x00, 0x00, 0x00,
    0x04, 0x00, 0x00, 0x00, 0x6d, 0x61, 0x69, 0x6e,
    0x00, 0x00, 0x00, 0x00, 0x03, 0x00, 0x00, 0x00,
    0x80, 0x00, 0x00, 0x00, 0x38, 0x00, 0x00, 0x00,
    0x04, 0x00, 0x00, 0x00, 0x9a, 0xff, 0xff, 0xff,
    0x10, 0x00, 0x00, 0x00, 0x00, 0x00, 0x00, 0x08,
    0x0c, 0x00, 0x00, 0x00, 0x10, 0x00, 0x00, 0x00,
    0x6c, 0xfb, 0xff, 0xff, 0x01, 0x00, 0x00, 0x00,
    0x09, 0x00, 0x00, 0x00, 0x03, 0x00, 0x00, 0x00,
    0x08, 0x00, 0x00, 0x00, 0x01, 0x00, 0x00, 0x00,
    0x04, 0x00, 0x00, 0x00, 0xca, 0xff, 0xff, 0xff,
    0x10, 0x00, 0x00, 0x00, 0x00, 0x00, 0x00, 0x08,
    0x10, 0x00, 0x00, 0x00, 0x14, 0x00, 0x00, 0x00,
    0xba, 0xff, 0xff, 0xff, 0x00, 0x00, 0x00, 0x01,
    0x01, 0x00, 0x00, 0x00, 0x08, 0x00, 0x00, 0x00,
    0x03, 0x00, 0x00, 0x00, 0x07, 0x00, 0x00, 0x00,
    0x02, 0x00, 0x00, 0x00, 0x03, 0x00, 0x00, 0x00,
    0x00, 0x00, 0x0e, 0x00, 0x16, 0x00, 0x00, 0x00,
    0x10, 0x00, 0x0c, 0x00, 0x0b, 0x00, 0x04, 0x00,
    0x0e, 0x00, 0x00, 0x00, 0x18, 0x00, 0x00, 0x00,
    0x00, 0x00, 0x00, 0x08, 0x18, 0x00, 0x00, 0x00,
    0x1c, 0x00, 0x00, 0x00, 0x00, 0x00, 0x06, 0x00,
    0x08, 0x00, 0x07, 0x00, 0x06, 0x00, 0x00, 0x00,
    0x00, 0x00, 0x00, 0x01, 0x01, 0x00, 0x00, 0x00,
    0x07, 0x00, 0x00, 0x00, 0x03, 0x00, 0x00, 0x00,
    0x00, 0x00, 0x00, 0x00, 0x06, 0x00, 0x00, 0x00,
    0x05, 0x00, 0x00, 0x00, 0x01, 0x00, 0x00, 0x00,
    0x09, 0x00, 0x00, 0x00, 0x01, 0x00, 0x00, 0x00,
    0x00, 0x00, 0x00, 0x00, 0x0a, 0x00, 0x00, 0x00,
    0xbc, 0x03, 0x00, 0x00, 0x64, 0x03, 0x00, 0x00,
    0x0c, 0x03, 0x00, 0x00, 0xac, 0x02, 0x00, 0x00,
    0x50, 0x02, 0x00, 0x00, 0xf4, 0x01, 0x00, 0x00,
    0xa4, 0x01, 0x00, 0x00, 0x04, 0x01, 0x00, 0x00,
    0x60, 0x00, 0x00, 0x00, 0x04, 0x00, 0x00, 0x00,
    0x82, 0xfc, 0xff, 0xff, 0x00, 0x00, 0x00, 0x01,
    0x14, 0x00, 0x00, 0x00, 0x1c, 0x00, 0x00, 0x00,
    0x1c, 0x00, 0x00, 0x00, 0x0a, 0x00, 0x00, 0x00,
    0x34, 0x00, 0x00, 0x00, 0x02, 0x00, 0x00, 0x00,
    0xff, 0xff, 0xff, 0xff, 0x01, 0x00, 0x00, 0x00,
    0x6c, 0xfc, 0xff, 0xff, 0x1b, 0x00, 0x00, 0x00,
    0x53, 0x74, 0x61, 0x74, 0x65, 0x66, 0x75, 0x6c,
    0x50, 0x61, 0x72, 0x74, 0x69, 0x74, 0x69, 0x6f,
    0x6e, 0x65, 0x64, 0x43, 0x61, 0x6c, 0x6c, 0x5f,
    0x31, 0x3a, 0x30, 0x00, 0x02, 0x00, 0x00, 0x00,
    0x01, 0x00, 0x00, 0x00, 0x01, 0x00, 0x00, 0x00,
    0xda, 0xfc, 0xff, 0xff, 0x00, 0x00, 0x00, 0x01,
    0x14, 0x00, 0x00, 0x00, 0x1c, 0x00, 0x00, 0x00,
    0x1c, 0x00, 0x00, 0x00, 0x09, 0x00, 0x00, 0x00,
    0x7c, 0x00, 0x00, 0x00, 0x02, 0x00, 0x00, 0x00,
    0xff, 0xff, 0xff, 0xff, 0x20, 0x00, 0x00, 0x00,
    0xc4, 0xfc, 0xff, 0xff, 0x61, 0x00, 0x00, 0x00,
    0x73, 0x65, 0x71, 0x75, 0x65, 0x6e, 0x74, 0x69,
    0x61, 0x6c, 0x5f, 0x33, 0x5f, 0x31, 0x2f, 0x64,
    0x65, 0x6e, 0x73, 0x65, 0x5f, 0x31, 0x30, 0x5f,
    0x31, 0x2f, 0x4d, 0x61, 0x74, 0x4d, 0x75, 0x6c,
    0x3b, 0x73, 0x65, 0x71, 0x75, 0x65, 0x6e, 0x74,
    0x69, 0x61, 0x6c, 0x5f, 0x33, 0x5f, 0x31, 0x2f,
    0x64, 0x65, 0x6e, 0x73, 0x65, 0x5f, 0x31, 0x30,
    0x5f, 0x31, 0x2f, 0x52, 0x65, 0x6c, 0x75, 0x3b,
    0x73, 0x65, 0x71, 0x75, 0x65, 0x6e, 0x74, 0x69,
    0x61, 0x6c, 0x5f, 0x33, 0x5f, 0x31, 0x2f, 0x64,
    0x65, 0x6e, 0x73, 0x65, 0x5f, 0x31, 0x30, 0x5f,
    0x31, 0x2f, 0x42, 0x69, 0x61, 0x73, 0x41, 0x64,
    0x64, 0x00, 0x00, 0x00, 0x02, 0x00, 0x00, 0x00,
    0x01, 0x00, 0x00, 0x00, 0x20, 0x00, 0x00, 0x00,
    0x7a, 0xfd, 0xff, 0xff, 0x00, 0x00, 0x00, 0x01,
    0x14, 0x00, 0x00, 0x00, 0x1c, 0x00, 0x00, 0x00,
    0x1c, 0x00, 0x00, 0x00, 0x08, 0x00, 0x00, 0x00,
    0x78, 0x00, 0x00, 0x00, 0x02, 0x00, 0x00, 0x00,
    0xff, 0xff, 0xff, 0xff, 0x10, 0x00, 0x00, 0x00,
    0x64, 0xfd, 0xff, 0xff, 0x5e, 0x00, 0x00, 0x00,
    0x73, 0x65, 0x71, 0x75, 0x65, 0x6e, 0x74, 0x69,
    0x61, 0x6c, 0x5f, 0x33, 0x5f, 0x31, 0x2f, 0x64,
    0x65, 0x6e, 0x73, 0x65, 0x5f, 0x39, 0x5f, 0x31,
    0x2f, 0x4d, 0x61, 0x74, 0x4d, 0x75, 0x6c, 0x3b,
    0x73, 0x65, 0x71, 0x75, 0x65, 0x6e, 0x74, 0x69,
    0x61, 0x6c, 0x5f, 0x33, 0x5f, 0x31, 0x2f, 0x64,
    0x65, 0x6e, 0x73, 0x65, 0x5f, 0x39, 0x5f, 0x31,
    0x2f, 0x52, 0x65, 0x6c, 0x75, 0x3b, 0x73, 0x65,
    0x71, 0x75, 0x65, 0x6e, 0x74, 0x69, 0x61, 0x6c,
    0x5f, 0x33, 0x5f, 0x31, 0x2f, 0x64, 0x65, 0x6e,
    0x73, 0x65, 0x5f, 0x39, 0x5f, 0x31, 0x2f, 0x42,
    0x69, 0x61, 0x73, 0x41, 0x64, 0x64, 0x00, 0x00,
    0x02, 0x00, 0x00, 0x00, 0x01, 0x00, 0x00, 0x00,
    0x10, 0x00, 0x00, 0x00, 0x6a, 0xfe, 0xff, 0xff,
    0x00, 0x00, 0x00, 0x01, 0x10, 0x00, 0x00, 0x00,
    0x10, 0x00, 0x00, 0x00, 0x07, 0x00, 0x00, 0x00,
    0x2c, 0x00, 0x00, 0x00, 0xf0, 0xfd, 0xff, 0xff,
    0x1f, 0x00, 0x00, 0x00, 0x73, 0x65, 0x71, 0x75,
    0x65, 0x6e, 0x74, 0x69, 0x61, 0x6c, 0x5f, 0x33,
    0x5f, 0x31, 0x2f, 0x64, 0x65, 0x6e, 0x73, 0x65,
    0x5f, 0x39, 0x5f, 0x31, 0x2f, 0x4d, 0x61, 0x74,
    0x4d, 0x75, 0x6c, 0x00, 0x02, 0x00, 0x00, 0x00,
    0x10, 0x00, 0x00, 0x00, 0x01, 0x00, 0x00, 0x00,
    0xb6, 0xfe, 0xff, 0xff, 0x00, 0x00, 0x00, 0x01,
    0x10, 0x00, 0x00, 0x00, 0x10, 0x00, 0x00, 0x00,
    0x06, 0x00, 0x00, 0x00, 0x3c, 0x00, 0x00, 0x00,
    0x3c, 0xfe, 0xff, 0xff, 0x2f, 0x00, 0x00, 0x00,
    0x73, 0x65, 0x71, 0x75, 0x65, 0x6e, 0x74, 0x69,
    0x61, 0x6c, 0x5f, 0x33, 0x5f, 0x31, 0x2f, 0x64,
    0x65, 0x6e, 0x73, 0x65, 0x5f, 0x39, 0x5f, 0x31,
    0x2f, 0x42, 0x69, 0x61, 0x73, 0x41, 0x64, 0x64,
    0x2f, 0x52, 0x65, 0x61, 0x64, 0x56, 0x61, 0x72,
    0x69, 0x61, 0x62, 0x6c, 0x65, 0x4f, 0x70, 0x00,
    0x01, 0x00, 0x00, 0x00, 0x10, 0x00, 0x00, 0x00,
    0x0e, 0xff, 0xff, 0xff, 0x00, 0x00, 0x00, 0x01,
    0x10, 0x00, 0x00, 0x00, 0x10, 0x00, 0x00, 0x00,
    0x05, 0x00, 0x00, 0x00, 0x3c, 0x00, 0x00, 0x00,
    0x94, 0xfe, 0xff, 0xff, 0x2c, 0x00, 0x00, 0x00,
    0x73, 0x65, 0x71, 0x75, 0x65, 0x6e, 0x74, 0x69,
    0x61, 0x6c, 0x5f, 0x33, 0x5f, 0x31, 0x2f, 0x64,
    0x65, 0x6e, 0x73, 0x65, 0x5f, 0x31, 0x31, 0x5f,
    0x31, 0x2f, 0x41, 0x64, 0x64, 0x2f, 0x52, 0x65,
    0x61, 0x64, 0x56, 0x61, 0x72, 0x69, 0x61, 0x62,
    0x6c, 0x65, 0x4f, 0x70, 0x00, 0x00, 0x00, 0x00,
    0x01, 0x00, 0x00, 0x00, 0x01, 0x00, 0x00, 0x00,
    0x66, 0xff, 0xff, 0xff, 0x00, 0x00, 0x00, 0x01,
    0x10, 0x00, 0x00, 0x00, 0x10, 0x00, 0x00, 0x00,
    0x04, 0x00, 0x00, 0x00, 0x40, 0x00, 0x00, 0x00,
    0xec, 0xfe, 0xff, 0xff, 0x30, 0x00, 0x00, 0x00,
    0x73, 0x65, 0x71, 0x75, 0x65, 0x6e, 0x74, 0x69,
    0x61, 0x6c, 0x5f, 0x33, 0x5f, 0x31, 0x2f, 0x64,
    0x65, 0x6e, 0x73, 0x65, 0x5f, 0x31, 0x30, 0x5f,
    0x31, 0x2f, 0x42, 0x69, 0x61, 0x73, 0x41, 0x64,
    0x64, 0x2f, 0x52, 0x65, 0x61, 0x64, 0x56, 0x61,
    0x72, 0x69, 0x61, 0x62, 0x6c, 0x65, 0x4f, 0x70,
    0x00, 0x00, 0x00, 0x00, 0x01, 0x00, 0x00, 0x00,
    0x20, 0x00, 0x00, 0x00, 0xc2, 0xff, 0xff, 0xff,
    0x00, 0x00, 0x00, 0x01, 0x10, 0x00, 0x00, 0x00,
    0x10, 0x00, 0x00, 0x00, 0x03, 0x00, 0x00, 0x00,
    0x1c, 0x00, 0x00, 0x00, 0x48, 0xff, 0xff, 0xff,
    0x0f, 0x00, 0x00, 0x00, 0x61, 0x72, 0x69, 0x74,
    0x68, 0x2e, 0x63, 0x6f, 0x6e, 0x73, 0x74, 0x61,
    0x6e, 0x74, 0x31, 0x00, 0x02, 0x00, 0x00, 0x00,
    0x20, 0x00, 0x00, 0x00, 0x10, 0x00, 0x00, 0x00,
    0x00, 0x00, 0x16, 0x00, 0x18, 0x00, 0x14, 0x00,
    0x00, 0x00, 0x10, 0x00, 0x0c, 0x00, 0x08, 0x00,
    0x00, 0x00, 0x00, 0x00, 0x00, 0x00, 0x07, 0x00,
    0x16, 0x00, 0x00, 0x00, 0x00, 0x00, 0x00, 0x01,
    0x10, 0x00, 0x00, 0x00, 0x10, 0x00, 0x00, 0x00,
    0x02, 0x00, 0x00, 0x00, 0x1c, 0x00, 0x00, 0x00,
    0x9c, 0xff, 0xff, 0xff, 0x0e, 0x00, 0x00, 0x00,
    0x61, 0x72, 0x69, 0x74, 0x68, 0x2e, 0x63, 0x6f,
    0x6e, 0x73, 0x74, 0x61, 0x6e, 0x74, 0x00, 0x00,
    0x02, 0x00, 0x00, 0x00, 0x01, 0x00, 0x00, 0x00,
    0x20, 0x00, 0x00, 0x00, 0x00, 0x00, 0x16, 0x00,
    0x1c, 0x00, 0x18, 0x00, 0x00, 0x00, 0x14, 0x00,
    0x10, 0x00, 0x0c, 0x00, 0x00, 0x00, 0x00, 0x00,
    0x08, 0x00, 0x07, 0x00, 0x16, 0x00, 0x00, 0x00,
    0x00, 0x00, 0x00, 0x01, 0x14, 0x00, 0x00, 0x00,
    0x20, 0x00, 0x00, 0x00, 0x20, 0x00, 0x00, 0x00,
    0x01, 0x00, 0x00, 0x00, 0x40, 0x00, 0x00, 0x00,
    0x02, 0x00, 0x00, 0x00, 0xff, 0xff, 0xff, 0xff,
    0x01, 0x00, 0x00, 0x00, 0x04, 0x00, 0x04, 0x00,
    0x04, 0x00, 0x00, 0x00, 0x21, 0x00, 0x00, 0x00,
    0x73, 0x65, 0x72, 0x76, 0x69, 0x6e, 0x67, 0x5f,
    0x64, 0x65, 0x66, 0x61, 0x75, 0x6c, 0x74, 0x5f,
    0x6b, 0x65, 0x72, 0x61, 0x73, 0x5f, 0x74, 0x65,
    0x6e, 0x73, 0x6f, 0x72, 0x5f, 0x31, 0x32, 0x3a,
    0x30, 0x00, 0x00, 0x00, 0x02, 0x00, 0x00, 0x00,
    0x01, 0x00, 0x00, 0x00, 0x01, 0x00, 0x00, 0x00,
    0x01, 0x00, 0x00, 0x00, 0x10, 0x00, 0x00, 0x00,
    0x0c, 0x00, 0x0c, 0x00, 0x0b, 0x00, 0x00, 0x00,
    0x00, 0x00, 0x04, 0x00, 0x0c, 0x00, 0x00, 0x00,
    0x09, 0x00, 0x00, 0x00, 0x00, 0x00, 0x00, 0x09
};

#endif // SINE_MODEL_H
