
#ifndef SINE_MODEL_H
#define SINE_MODEL_H

const unsigned int sine_model_len = 4332;

const unsigned char sine_model[4332] = {
    0x1c, 0x00, 0x00, 0x00, 0x54, 0x46, 0x4c, 0x33, 0x14,
    0x00, 0x20, 0x00, 0x1c, 0x00, 0x18, 0x00, 0x14, 0x00,
    0x10, 0x00, 0x0c, 0x00, 0x00, 0x00, 0x08, 0x00, 0x04,
    0x00, 0x14, 0x00, 0x00, 0x00, 0x1c, 0x00, 0x00, 0x00,
    0x98, 0x00, 0x00, 0x00, 0xf0, 0x00, 0x00, 0x00,
    0x94, 0x0b, 0x00, 0x00, 0xa4, 0x0b, 0x00, 0x00,
    0x98, 0x10, 0x00, 0x00, 0x03, 0x00, 0x00, 0x00,
    0x01, 0x00, 0x00, 0x00, 0x10, 0x00, 0x00, 0x00,
    0x00, 0x00, 0x0a, 0x00, 0x10, 0x00, 0x0c, 0x00,
    0x08, 0x00, 0x04, 0x00, 0x0a, 0x00, 0x00, 0x00,
    0x0c, 0x00, 0x00, 0x00, 0x1c, 0x00, 0x00, 0x00,
    0x3c, 0x00, 0x00, 0x00, 0x0f, 0x00, 0x00, 0x00,
    0x73, 0x65, 0x72, 0x76, 0x69, 0x6e, 0x67, 0x5f,
    0x64, 0x65, 0x66, 0x61, 0x75, 0x6c, 0x74, 0x00,
    0x01, 0x00, 0x00, 0x00, 0x04, 0x00, 0x00, 0x00,
    0x90, 0xff, 0xff, 0xff, 0x09, 0x00, 0x00, 0x00,
    0x04, 0x00, 0x00, 0x00, 0x08, 0x00, 0x00, 0x00,
    0x6f, 0x75, 0x74, 0x70, 0x75, 0x74, 0x5f, 0x30,
    0x00, 0x00, 0x00, 0x00, 0x01, 0x00, 0x00, 0x00,
    0x04, 0x00, 0x00, 0x00, 0x3a, 0xf5, 0xff, 0xff,
    0x04, 0x00, 0x00, 0x00, 0x0f, 0x00, 0x00, 0x00,
    0x6b, 0x65, 0x72, 0x61, 0x73, 0x5f, 0x74, 0x65,
    0x6e, 0x73, 0x6f, 0x72, 0x5f, 0x32, 0x30, 0x00,
    0x02, 0x00, 0x00, 0x00, 0x34, 0x00, 0x00, 0x00,
    0x04, 0x00, 0x00, 0x00, 0xdc, 0xff, 0xff, 0xff,
    0x0c, 0x00, 0x00, 0x00, 0x04, 0x00, 0x00, 0x00,
    0x13, 0x00, 0x00, 0x00, 0x43, 0x4f, 0x4e, 0x56,
    0x45, 0x52, 0x53, 0x49, 0x4f, 0x4e, 0x5f, 0x4d,
    0x45, 0x54, 0x41, 0x44, 0x41, 0x54, 0x41, 0x00,
    0x08, 0x00, 0x0c, 0x00, 0x08, 0x00, 0x04, 0x00,
    0x08, 0x00, 0x00, 0x00, 0x0b, 0x00, 0x00, 0x00,
    0x04, 0x00, 0x00, 0x00, 0x13, 0x00, 0x00, 0x00,
    0x6d, 0x69, 0x6e, 0x5f, 0x72, 0x75, 0x6e, 0x74,
    0x69, 0x6d, 0x65, 0x5f, 0x76, 0x65, 0x72, 0x73,
    0x69, 0x6f, 0x6e, 0x00, 0x0d, 0x00, 0x00, 0x00,
    0xa0, 0x0a, 0x00, 0x00, 0x98, 0x0a, 0x00, 0x00,
    0x48, 0x0a, 0x00, 0x00, 0x30, 0x02, 0x00, 0x00,
    0x1c, 0x02, 0x00, 0x00, 0xcc, 0x01, 0x00, 0x00,
    0x3c, 0x01, 0x00, 0x00, 0xac, 0x00, 0x00, 0x00,
    0xa4, 0x00, 0x00, 0x00, 0x9c, 0x00, 0x00, 0x00,
    0x94, 0x00, 0x00, 0x00, 0x74, 0x00, 0x00, 0x00,
    0x04, 0x00, 0x00, 0x00, 0xea, 0xf5, 0xff, 0xff,
    0x04, 0x00, 0x00, 0x00, 0x60, 0x00, 0x00, 0x00,
    0x0c, 0x00, 0x00, 0x00, 0x08, 0x00, 0x0e, 0x00,
    0x08, 0x00, 0x04, 0x00, 0x08, 0x00, 0x00, 0x00,
    0x10, 0x00, 0x00, 0x00, 0x28, 0x00, 0x00, 0x00,
    0x00, 0x00, 0x06, 0x00, 0x08, 0x00, 0x04, 0x00,
    0x06, 0x00, 0x00, 0x00, 0x04, 0x00, 0x00, 0x00,
    0x01, 0x00, 0x00, 0x00, 0xea, 0x03, 0x00, 0x00,
    0x0c, 0x00, 0x18, 0x00, 0x14, 0x00, 0x10, 0x00,
    0x0c, 0x00, 0x04, 0x00, 0x0c, 0x00, 0x00, 0x00,
    0xb2, 0xb4, 0xad, 0xd5, 0xa0, 0x99, 0xac, 0xf9,
    0x02, 0x00, 0x00, 0x00, 0x02, 0x00, 0x00, 0x00,
    0x04, 0x00, 0x00, 0x00, 0x06, 0x00, 0x00, 0x00,
    0x32, 0x2e, 0x31, 0x39, 0x2e, 0x30, 0x00, 0x00,
    0x56, 0xf6, 0xff, 0xff, 0x04, 0x00, 0x00, 0x00,
    0x10, 0x00, 0x00, 0x00, 0x31, 0x2e, 0x35, 0x2e,
    0x30, 0x00, 0x00, 0x00, 0x00, 0x00, 0x00, 0x00,
    0x00, 0x00, 0x00, 0x00, 0x48, 0xf1, 0xff, 0xff,
    0x4c, 0xf1, 0xff, 0xff, 0x50, 0xf1, 0xff, 0xff,
    0x7e, 0xf6, 0xff, 0xff, 0x04, 0x00, 0x00, 0x00,
    0x80, 0x00, 0x00, 0x00, 0xed, 0x85, 0xa3, 0x3e,
    0x92, 0x1b, 0xdb, 0x3e, 0xc7, 0x3a, 0xad, 0x3e,
    0x88, 0xb9, 0xdc, 0x3e, 0x63, 0x8a, 0x87, 0x3e,
    0xe0, 0xce, 0x7b, 0x3e, 0xcc, 0x46, 0x64, 0xbe,
    0xdf, 0x1b, 0x30, 0x3e, 0x4a, 0xf6, 0x40, 0x3e,
    0x8f, 0xbc, 0x87, 0xbe, 0x67, 0x36, 0xa3, 0x3d,
    0xee, 0x1e, 0x8f, 0xbe, 0x65, 0xa5, 0x2d, 0x3e,
    0x2c, 0xe2, 0x03, 0xbe, 0xf1, 0xae, 0xa0, 0x3e,
    0xe0, 0x3e, 0x94, 0x3e, 0x0b, 0x28, 0x89, 0x3e,
    0x87, 0x9b, 0x9e, 0x3e, 0xfa, 0x69, 0xac, 0x3d,
    0x6e, 0x3b, 0xbd, 0x3e, 0x05, 0x62, 0x8f, 0x3e,
    0x40, 0x75, 0x89, 0xbb, 0x94, 0x8a, 0x89, 0xbe,
    0x46, 0x04, 0x60, 0xbe, 0x0c, 0xd0, 0xb3, 0xbe,
    0xd5, 0x6c, 0x9b, 0x3e, 0xa8, 0xa1, 0xc5, 0xbd,
    0x90, 0xb8, 0xc1, 0xbd, 0xc6, 0x0b, 0x82, 0xbe,
    0x66, 0xc6, 0xda, 0x3e, 0x3b, 0x91, 0xd2, 0xbe,
    0xba, 0xfd, 0xa5, 0xbe, 0x0a, 0xf7, 0xff, 0xff,
    0x04, 0x00, 0x00, 0x00, 0x80, 0x00, 0x00, 0x00,
    0xfd, 0xbc, 0xe4, 0xbe, 0x7d, 0x78, 0x83, 0x3c,
    0x3e, 0xc9, 0x5f, 0x3c, 0xb1, 0x46, 0x27, 0x3e,
    0xa7, 0xd8, 0xde, 0xbe, 0xbc, 0x47, 0x03, 0xbf,
    0x00, 0x00, 0x00, 0x00, 0x7c, 0x98, 0x25, 0xbf,
    0x75, 0xee, 0x0e, 0xbe, 0x00, 0x00, 0x00, 0x00,
    0x65, 0x40, 0x07, 0xbe, 0x00, 0x00, 0x00, 0x00,
    0x91, 0xf4, 0xcb, 0x3e, 0x00, 0x00, 0x00, 0x00,
    0x94, 0xcd, 0x26, 0xbe, 0xbf, 0x2a, 0x71, 0xbd,
    0x93, 0xa6, 0x67, 0x3e, 0x8c, 0x9a, 0x8b, 0x3e,
    0xdf, 0xeb, 0x25, 0x3e, 0x78, 0xa4, 0x93, 0x3e,
    0x3d, 0x8f, 0x3b, 0xbf, 0x00, 0x00, 0x00, 0x00,
    0x00, 0x00, 0x00, 0x00, 0x00, 0x00, 0x00, 0x00,
    0x00, 0x00, 0x00, 0x00, 0xa2, 0xe0, 0xa6, 0xbe,
    0x00, 0x00, 0x00, 0x00, 0x00, 0x00, 0x00, 0x00,
    0x00, 0x00, 0x00, 0x00, 0x52, 0xbc, 0xf2, 0x3d,
    0x00, 0x00, 0x00, 0x00, 0x00, 0x00, 0x00, 0x00,
    0x96, 0xf7, 0xff, 0xff, 0x04, 0x00, 0x00, 0x00,
    0x40, 0x00, 0x00, 0x00, 0x34, 0xea, 0x38, 0xbe,
    0x40, 0xc3, 0xab, 0x3d, 0xd7, 0x08, 0x86, 0xbe,
    0x9f, 0xbf, 0xaf, 0x3d, 0xf8, 0xf3, 0x82, 0x3e,
    0xdc, 0x3b, 0x26, 0xbe, 0x00, 0x00, 0x00, 0x00,
    0x24, 0xed, 0xef, 0xbb, 0xc2, 0x8d, 0x0a, 0x3e,
    0x38, 0xbe, 0xdc, 0x3d, 0x86, 0xe9, 0xcf, 0x3d,
    0xc5, 0xc0, 0x90, 0xbe, 0x5f, 0x8a, 0x7f, 0x3d,
    0x51, 0x6f, 0xc7, 0xbe, 0x5c, 0xb3, 0x8b, 0x3e,
    0xc5, 0xef, 0xdf, 0x3d, 0xe2, 0xf7, 0xff, 0xff,
    0x04, 0x00, 0x00, 0x00, 0x04, 0x00, 0x00, 0x00,
    0x04, 0xd1, 0x86, 0xbe, 0xf2, 0xf7, 0xff, 0xff,
    0x04, 0x00, 0x00, 0x00, 0x00, 0x08, 0x00, 0x00,
    0x91, 0xb5, 0xdf, 0x3e, 0xec, 0x62, 0x6e, 0xbd,
    0x3b, 0xca, 0x9a, 0x3e, 0x6f, 0x88, 0x87, 0x3e,
    0xf9, 0x09, 0x0b, 0x3e, 0xc8, 0x9a, 0x4c, 0x3e,
    0x40, 0x37, 0xb2, 0x3b, 0xdf, 0xce, 0xcd, 0x3e,
    0xbf, 0xfb, 0x5a, 0x3d, 0xaf, 0xfe, 0x04, 0xbe,
    0xe0, 0x51, 0x77, 0xbd, 0x02, 0xfa, 0xd7, 0xbd,
    0x7a, 0xe0, 0xea, 0xbe, 0x03, 0x2c, 0x64, 0xbe,
    0xa9, 0xf7, 0x64, 0xbe, 0x98, 0xdb, 0x83, 0x3d,
    0xc4, 0x3f, 0xcb, 0x3d, 0x8a, 0xfc, 0xee, 0xbd,
    0x84, 0xc5, 0xb8, 0xbd, 0xb1, 0xcc, 0xd7, 0x3d,
    0x4e, 0xcd, 0xf6, 0x3e, 0x08, 0x0a, 0x24, 0xbe,
    0x1d, 0xa3, 0xa1, 0xbe, 0x67, 0xaf, 0x4b, 0xbe,
    0x7b, 0x57, 0x07, 0xbe, 0x90, 0xc0, 0xb9, 0x3e,
    0xea, 0xac, 0x30, 0x3e, 0x80, 0x54, 0x58, 0xbd,
    0x9c, 0xb8, 0x09, 0xbe, 0xd1, 0xab, 0x9f, 0xbe,
    0x06, 0x6a, 0x17, 0x3e, 0x8c, 0xf3, 0xf9, 0xbd,
    0xba, 0x6f, 0x20, 0xbe, 0x46, 0xbd, 0xf6, 0xbd,
    0x79, 0x2e, 0x16, 0x3e, 0x5b, 0x30, 0x75, 0x3e,
    0x9f, 0x18, 0xac, 0xbe, 0x68, 0x0d, 0xc0, 0xbe,
    0xfd, 0x16, 0x66, 0xbe, 0x79, 0x05, 0xf6, 0xbe,
    0x1d, 0x4b, 0x81, 0x3d, 0x5a, 0x3a, 0x32, 0xbe,
    0x35, 0x79, 0x6d, 0xbd, 0x16, 0x62, 0x03, 0xbe,
    0xaf, 0xe8, 0x1c, 0x3e, 0xa6, 0xfc, 0xa6, 0xbe,
    0xc6, 0xf8, 0xa1, 0xbe, 0x1c, 0x5f, 0xf0, 0x3d,
    0x5f, 0x0b, 0xde, 0xbc, 0xc7, 0xbb, 0x25, 0xbe,
    0x5d, 0xd5, 0x8e, 0xbe, 0xea, 0xef, 0x70, 0x3e,
    0x6d, 0x93, 0x59, 0xbf, 0x30, 0xeb, 0x53, 0x3d,
    0x40, 0xcf, 0x3f, 0xbd, 0x9d, 0xfe, 0x50, 0xbe,
    0x90, 0xf3, 0xc0, 0xbd, 0x2d, 0x47, 0xa3, 0x3d,
    0x99, 0xd8, 0x9f, 0x3e, 0x94, 0x2d, 0xd8, 0xbd,
    0xfa, 0x6a, 0x44, 0x3e, 0xf8, 0x8a, 0xb5, 0x3e,
    0x30, 0x06, 0x93, 0xbd, 0x8f, 0x9e, 0xa4, 0x3e,
    0xc2, 0xcf, 0x87, 0x3d, 0xc4, 0x49, 0x4c, 0x3e,
    0x1d, 0xc1, 0xbc, 0xbe, 0x95, 0x7f, 0x84, 0x3c,
    0xae, 0xce, 0xa0, 0x3d, 0x46, 0x29, 0xd4, 0x3e,
    0x83, 0xaa, 0xa4, 0x3e, 0xcd, 0x34, 0x93, 0xbc,
    0xd3, 0x42, 0x5d, 0x3e, 0x69, 0xfc, 0x4f, 0xbe,
    0xc6, 0x32, 0x1c, 0x3e, 0x7a, 0x5a, 0x77, 0x3e,
    0x31, 0x80, 0x46, 0x3e, 0xe2, 0xcd, 0x12, 0x3e,
    0x8d, 0x63, 0x9b, 0x3e, 0x7f, 0x6c, 0x8a, 0xbe,
    0x71, 0x14, 0x97, 0x3e, 0x57, 0x77, 0xa8, 0xbe,
    0xf5, 0x86, 0x6e, 0xbe, 0x2b, 0x18, 0x9e, 0xbe,
    0x76, 0x36, 0xf5, 0x3e, 0x62, 0xa9, 0x8d, 0xbe,
    0x04, 0x97, 0x06, 0x3e, 0xa8, 0x84, 0xe9, 0x3d,
    0x69, 0x9a, 0x8a, 0x3e, 0xc9, 0x03, 0xb7, 0x3d,
    0x20, 0x5a, 0x79, 0xbc, 0x83, 0x14, 0x8c, 0x3e,
    0xac, 0xe2, 0x9b, 0x3d, 0x53, 0xab, 0x4e, 0x3e,
    0x44, 0xf2, 0x4b, 0xbe, 0x22, 0xae, 0x5d, 0x3e,
    0xed, 0xf0, 0x64, 0xbf, 0x5b, 0xa4, 0x45, 0xbe,
    0xe9, 0xe1, 0xc8, 0x3e, 0x38, 0xa7, 0xc0, 0xbd,
    0x44, 0xca, 0x8e, 0x3e, 0xdf, 0xc3, 0x30, 0xbf,
    0x6d, 0x99, 0x94, 0xbe, 0xab, 0x6e, 0x16, 0xbf,
    0xc7, 0x62, 0xd2, 0xbd, 0x48, 0x6b, 0x13, 0xbe,
    0x47, 0xf0, 0x0d, 0xbe, 0x67, 0x51, 0x83, 0xbe,
    0x7f, 0x77, 0xd4, 0x3e, 0x4e, 0xa7, 0x94, 0xbe,
    0xf7, 0x88, 0x9c, 0x3e, 0x28, 0x3c, 0x7c, 0x3e,
    0x22, 0x0e, 0x9d, 0x3e, 0x24, 0xc3, 0x72, 0x3e,
    0xa9, 0xb2, 0x95, 0x3e, 0xc5, 0x4b, 0x4f, 0xbe,
    0x73, 0x36, 0x55, 0xbf, 0xc0, 0x2c, 0xe3, 0xbb,
    0xe4, 0x2d, 0x88, 0xbe, 0xcc, 0xf8, 0xb9, 0x3d,
    0xe0, 0x0a, 0x55, 0xbd, 0xea, 0xc2, 0x3d, 0xbd,
    0x40, 0x08, 0xc1, 0xbb, 0x72, 0x88, 0x4f, 0x3e,
    0xc0, 0x60, 0xa2, 0x3b, 0x95, 0xbb, 0x6c, 0xbe,
    0x80, 0x62, 0xad, 0xbc, 0x21, 0x83, 0x9d, 0x3e,
    0xce, 0xba, 0x8c, 0xbe, 0xfc, 0xc8, 0x0d, 0xbe,
    0x23, 0x0e, 0x05, 0xbf, 0xad, 0x96, 0xa7, 0xbe,
    0x7c, 0x8a, 0x13, 0xbe, 0xbc, 0xbe, 0x0d, 0x3e,
    0x26, 0xba, 0x52, 0x3e, 0xe2, 0xa1, 0x3e, 0x3e,
    0x29, 0xab, 0xed, 0x3d, 0x20, 0x84, 0x54, 0xbc,
    0xc0, 0x56, 0xf1, 0xbe, 0x45, 0xbe, 0x95, 0xbe,
    0xe2, 0x9e, 0x56, 0x3e, 0x74, 0xb5, 0x58, 0xbe,
    0x75, 0xc7, 0x07, 0xbf, 0x81, 0x5e, 0xcd, 0xbe,
    0xe6, 0xeb, 0xb7, 0xbd, 0x71, 0xec, 0x46, 0x3e,
    0xe1, 0x53, 0x1c, 0x3e, 0x35, 0xeb, 0x74, 0xbd,
    0xae, 0x8d, 0x9b, 0xbe, 0x20, 0xce, 0xa8, 0xbd,
    0x4e, 0xad, 0x52, 0x3e, 0xb3, 0x8a, 0xb4, 0x3e,
    0x47, 0xaf, 0xa6, 0x3e, 0x0c, 0xde, 0xb3, 0xbd,
    0x8d, 0x05, 0x8e, 0xbe, 0x74, 0x1a, 0xb2, 0xbe,
    0xc4, 0x88, 0xd6, 0xbd, 0x9b, 0x81, 0x89, 0xbe,
    0x00, 0x94, 0x79, 0x3c, 0xbe, 0x7f, 0x73, 0x3e,
    0x54, 0xdf, 0x30, 0x3e, 0xe2, 0xc1, 0x59, 0xbe,
    0xfb, 0xab, 0x2d, 0x3e, 0x1e, 0xd5, 0x1d, 0x3e,
    0x0a, 0xa1, 0x95, 0xbe, 0x15, 0x7f, 0x5b, 0xbe,
    0xfd, 0xef, 0x80, 0xbe, 0x35, 0x20, 0xf2, 0x3e,
    0x09, 0x39, 0x30, 0x3d, 0xb6, 0x8d, 0x77, 0x3e,
    0xc0, 0x55, 0x11, 0x3e, 0xd0, 0x45, 0x32, 0xbd,
    0x72, 0x60, 0x79, 0xbe, 0x26, 0x05, 0x0b, 0xbe,
    0x82, 0x5e, 0x0b, 0x3e, 0x32, 0x5c, 0x16, 0xbe,
    0x40, 0x25, 0x80, 0x3e, 0x18, 0x9c, 0x31, 0xbd,
    0x1b, 0xfc, 0xbc, 0xbd, 0x18, 0x34, 0x91, 0x3e,
    0x4a, 0x13, 0x85, 0x3e, 0x38, 0xc4, 0xec, 0x3d,
    0xdb, 0x05, 0x24, 0xbe, 0x0a, 0xf8, 0x24, 0xbe,
    0x0c, 0x6f, 0x51, 0xbe, 0x74, 0x99, 0x90, 0x3d,
    0x29, 0x0a, 0x75, 0xbe, 0xce, 0x42, 0x6e, 0x3e,
    0x2f, 0x56, 0x97, 0x3e, 0x34, 0x92, 0xea, 0x3d,
    0x10, 0x2d, 0xd6, 0xbd, 0x48, 0x4b, 0x2c, 0x3d,
    0xec, 0x6c, 0xc6, 0xbd, 0xcc, 0x95, 0x6b, 0xbe,
    0x8c, 0x45, 0x9a, 0xbd, 0xf0, 0xa2, 0x7e, 0xbe,
    0xf4, 0xa7, 0x03, 0x3e, 0x22, 0x20, 0x35, 0x3e,
    0xc0, 0x98, 0xb1, 0x3b, 0xe1, 0xeb, 0x81, 0x3e,
    0x00, 0xd9, 0x81, 0x3d, 0xa7, 0x28, 0xae, 0x3e,
    0x05, 0x59, 0xa6, 0xbe, 0x10, 0x81, 0xed, 0xbd,
    0xc4, 0xaa, 0xdf, 0xbd, 0x44, 0x2f, 0xbc, 0xbd,
    0xda, 0x3f, 0x32, 0x3e, 0xf8, 0xc0, 0x45, 0xbd,
    0xf2, 0x5e, 0x7d, 0xbe, 0xc8, 0xb8, 0x12, 0x3e,
    0x90, 0x16, 0xe6, 0x3d, 0x8d, 0x4b, 0x28, 0xbe,
    0x51, 0x2c, 0x84, 0x3e, 0x40, 0x5b, 0x9b, 0x3c,
    0x33, 0xb2, 0x2f, 0xbe, 0xb7, 0x01, 0xaa, 0x3e,
    0x34, 0x88, 0xc5, 0x3d, 0x00, 0xd0, 0xaf, 0x3b,
    0xda, 0xc7, 0x4d, 0xbe, 0xc6, 0x5d, 0x29, 0x3e,
    0x92, 0x44, 0x44, 0x3e, 0xf0, 0x52, 0x99, 0x3c,
    0x2d, 0x91, 0xaf, 0xbe, 0x22, 0x18, 0x34, 0xbe,
    0x9b, 0xff, 0x1a, 0xbe, 0x32, 0xed, 0x8c, 0xbe,
    0xa4, 0x4d, 0x9f, 0xbe, 0x9e, 0x87, 0x22, 0x3b,
    0xeb, 0x31, 0x74, 0xbe, 0x50, 0x85, 0xb4, 0xbc,
    0x60, 0x92, 0xaa, 0xbe, 0xc2, 0xd5, 0x95, 0xbe,
    0x5d, 0x76, 0xae, 0x3e, 0x6f, 0xaa, 0xb1, 0xbe,
    0xa0, 0xcb, 0xe8, 0xbd, 0xb0, 0x34, 0xef, 0xbc,
    0x2e, 0x3e, 0xf6, 0xbd, 0x0c, 0xa0, 0xd0, 0xbd,
    0x0d, 0x5e, 0x73, 0xbe, 0xc0, 0xff, 0x31, 0xbe,
    0xc0, 0x9c, 0xc0, 0x3c, 0xbf, 0x9a, 0xfa, 0xbc,
    0x84, 0x13, 0x0a, 0xbe, 0x7f, 0xc8, 0x98, 0x3e,
    0xdb, 0x34, 0x84, 0x3e, 0xb0, 0xaa, 0x1e, 0x3d,
    0xe6, 0x6e, 0x36, 0xbe, 0x86, 0xe8, 0xad, 0xbe,
    0x5f, 0xfb, 0x9b, 0x3e, 0x3a, 0x9d, 0x94, 0xbe,
    0xc8, 0x63, 0x88, 0x3d, 0x82, 0x0f, 0x96, 0xbe,
    0x83, 0xd4, 0x38, 0xbe, 0x5e, 0x95, 0xcf, 0xbd,
    0x86, 0xc5, 0x35, 0xbe, 0x52, 0xb5, 0x32, 0x3e,
    0xce, 0x7b, 0xcd, 0x3d, 0x73, 0xa4, 0xbc, 0x3e,
    0x5f, 0x8e, 0x8d, 0x3e, 0x93, 0xf7, 0xd5, 0x3d,
    0x50, 0x0a, 0xb1, 0xbe, 0x83, 0x72, 0x2e, 0xbe,
    0x51, 0x6c, 0x8f, 0x3e, 0xe4, 0xe2, 0xb2, 0xbd,
    0xdc, 0xd2, 0x84, 0xbe, 0x00, 0x63, 0xce, 0xbb,
    0xf4, 0x4d, 0x8a, 0xbe, 0x18, 0x58, 0xf2, 0x3d,
    0x53, 0xe5, 0x67, 0x3d, 0x06, 0xf8, 0x1a, 0x3e,
    0xe8, 0x86, 0x96, 0xbe, 0x93, 0x14, 0x18, 0x3e,
    0x3b, 0x14, 0x75, 0xbd, 0xc1, 0x64, 0x3e, 0xbd,
    0x9d, 0x02, 0x59, 0x3d, 0x6f, 0x74, 0x30, 0x3e,
    0xbb, 0x78, 0x39, 0xbf, 0x3a, 0x4f, 0x9a, 0xbe,
    0xcc, 0x84, 0x11, 0x3e, 0xc5, 0x7f, 0x30, 0xbe,
    0x65, 0xdf, 0x8e, 0x3e, 0x7c, 0x6a, 0x6a, 0x3e,
    0x7a, 0xf9, 0x3c, 0x3e, 0x52, 0x72, 0x27, 0x3e,
    0x50, 0xeb, 0xba, 0x3c, 0x07, 0xf5, 0x01, 0x3c,
    0x0a, 0x64, 0x34, 0x3e, 0xe8, 0x94, 0xd0, 0xbd,
    0xd4, 0x98, 0x00, 0xbd, 0x68, 0xee, 0x90, 0xbe,
    0x3e, 0x5b, 0x9a, 0x3d, 0x2e, 0x4a, 0x92, 0x3e,
    0x40, 0x63, 0x64, 0xbe, 0x68, 0xb2, 0x8a, 0x3e,
    0xcc, 0x83, 0xbb, 0x3d, 0x95, 0x66, 0xd7, 0xbe,
    0x9d, 0x58, 0x34, 0x3e, 0x3a, 0xbd, 0x8d, 0xbe,
    0x42, 0x59, 0x86, 0xbe, 0xb1, 0x09, 0x84, 0x3e,
    0x5e, 0xf2, 0xbb, 0xba, 0xa8, 0x0e, 0xce, 0xbd,
    0xb2, 0xce, 0x1c, 0xbe, 0xf3, 0x58, 0x9f, 0xbe,
    0xac, 0xf8, 0xba, 0x3e, 0x64, 0xd7, 0x11, 0x3e,
    0x04, 0xb3, 0x81, 0xbe, 0xfb, 0x83, 0x07, 0x3e,
    0x70, 0x9d, 0x80, 0xbe, 0x98, 0x48, 0x92, 0x3d,
    0x40, 0x3e, 0xb4, 0x3c, 0x72, 0xf6, 0x36, 0x3e,
    0xba, 0xb8, 0x10, 0xbe, 0xae, 0xe1, 0x30, 0x3e,
    0xca, 0xe8, 0x81, 0xbe, 0x90, 0xc2, 0xce, 0xbd,
    0x85, 0x66, 0x15, 0xbe, 0xfc, 0x58, 0xb8, 0x3e,
    0x14, 0x7f, 0x81, 0xbe, 0x35, 0xd3, 0x5a, 0xbe,
    0x8e, 0x40, 0x1e, 0xbf, 0x7c, 0x62, 0x9f, 0x3e,
    0xbf, 0x07, 0x87, 0xbe, 0x6c, 0x7a, 0x85, 0x3e,
    0x89, 0xce, 0xf1, 0xbd, 0x8e, 0xa2, 0x22, 0xbf,
    0x8c, 0xe0, 0xca, 0x3d, 0xb2, 0xc3, 0xe9, 0xbe,
    0xfb, 0x9f, 0x24, 0xbd, 0x72, 0x6a, 0x80, 0xbe,
    0x38, 0xe9, 0x69, 0x3e, 0x50, 0x7c, 0x57, 0xbd,
    0x4e, 0x29, 0xc4, 0x3e, 0x2b, 0x41, 0x8c, 0xbe,
    0x67, 0x27, 0x5f, 0xbb, 0x1c, 0x8e, 0x9a, 0xbd,
    0x66, 0x08, 0x58, 0x3e, 0xe2, 0x21, 0x0d, 0x3e,
    0x4a, 0x61, 0xb5, 0xbc, 0xe5, 0x62, 0x8b, 0x3d,
    0x97, 0x33, 0xa4, 0xbf, 0x8d, 0x8f, 0x8f, 0x3e,
    0xa8, 0x5b, 0x59, 0xbd, 0x71, 0x37, 0xa2, 0x3e,
    0x00, 0x06, 0x73, 0xbb, 0x1f, 0xc4, 0xc1, 0xbe,
    0x4c, 0x28, 0xb5, 0xbd, 0xe0, 0x2f, 0xf7, 0xbc,
    0xc0, 0x7e, 0xc4, 0x3b, 0x8c, 0x0a, 0x04, 0x3e,
    0x00, 0x46, 0x9d, 0xbb, 0xf2, 0xfb, 0x69, 0x3e,
    0x72, 0xfb, 0x6d, 0x3e, 0xf0, 0x54, 0xb4, 0x3d,
    0x6c, 0xe4, 0x85, 0xbd, 0x7e, 0x5a, 0x7f, 0x3e,
    0x4c, 0x39, 0x35, 0xbd, 0x35, 0x6a, 0x41, 0xbe,
    0x40, 0xa4, 0x9c, 0x3d, 0x34, 0x36, 0x5d, 0x3e,
    0xb5, 0x92, 0x56, 0x3e, 0x12, 0x80, 0xd7, 0xbd,
    0xc3, 0xb3, 0xf1, 0xbc, 0xa0, 0x16, 0xb6, 0x3c,
    0x9f, 0xa2, 0x10, 0xbd, 0x70, 0xbd, 0xb1, 0xbe,
    0x07, 0xaf, 0x73, 0x3e, 0x92, 0x1d, 0x5a, 0xbe,
    0xe9, 0xfd, 0x81, 0x3e, 0x25, 0xd1, 0x0e, 0x3e,
    0xef, 0x81, 0x41, 0xbe, 0x76, 0xe9, 0xb2, 0x3d,
    0x8b, 0xc0, 0x48, 0x3f, 0xa4, 0x04, 0x96, 0xbd,
    0xc4, 0xa1, 0xa9, 0x3d, 0x40, 0x87, 0x23, 0x3c,
    0xac, 0xc5, 0xb7, 0xbd, 0xf1, 0x40, 0xa6, 0x3e,
    0x7a, 0xae, 0x94, 0xbe, 0x10, 0x3b, 0xae, 0x3c,
    0xd1, 0x24, 0x80, 0x3e, 0xae, 0xc9, 0xb2, 0xbe,
    0x3e, 0x2f, 0x60, 0x3e, 0xb2, 0xb6, 0x50, 0x3e,
    0x04, 0x95, 0xcc, 0x3d, 0x3a, 0x02, 0xc8, 0xbd,
    0x53, 0x19, 0x96, 0x3e, 0x09, 0xb1, 0x37, 0xbe,
    0x44, 0x1f, 0x65, 0x3e, 0xe8, 0x67, 0x53, 0xbe,
    0xec, 0xd6, 0xa9, 0xbe, 0x75, 0x49, 0x15, 0x3e,
    0xd7, 0x23, 0x42, 0xbe, 0xb8, 0x32, 0x19, 0x3d,
    0x92, 0x82, 0xea, 0xbd, 0x36, 0x90, 0x4c, 0x3e,
    0x12, 0x76, 0x02, 0x3d, 0xcc, 0x0e, 0xe1, 0x3d,
    0x63, 0xf6, 0x68, 0x3e, 0xee, 0x67, 0x26, 0xbe,
    0xdc, 0x03, 0x87, 0x3e, 0x3e, 0x52, 0x71, 0x3e,
    0x26, 0xd4, 0x2f, 0x3e, 0xa4, 0xd5, 0x8e, 0x3e,
    0x1b, 0xed, 0xd5, 0xbe, 0x2f, 0x49, 0x9c, 0xbe,
    0xe9, 0x77, 0x2a, 0xbe, 0xbc, 0x58, 0x8a, 0xbe,
    0x8a, 0x73, 0xd8, 0xbd, 0xde, 0xe4, 0xb5, 0xbc,
    0xbb, 0xd0, 0xa4, 0x3e, 0x03, 0xae, 0xab, 0x3e,
    0x33, 0x82, 0xa7, 0x3e, 0xa7, 0x84, 0x2b, 0xbe,
    0xb8, 0xe7, 0x0c, 0x3d, 0x9e, 0xd9, 0x84, 0xbe,
    0x9a, 0x93, 0xe2, 0x3e, 0x9d, 0x30, 0xd9, 0xbd,
    0xd5, 0x88, 0x18, 0xbc, 0x7a, 0xd5, 0xae, 0xbe,
    0xeb, 0xec, 0x83, 0x3e, 0x22, 0x4b, 0x05, 0x3f,
    0xd9, 0xfa, 0x8f, 0xbe, 0xf3, 0xb2, 0x13, 0x3f,
    0xaa, 0x8f, 0x96, 0xbb, 0xf0, 0x4b, 0x5e, 0xbd,
    0xac, 0x39, 0xad, 0x3e, 0x2c, 0xff, 0xf6, 0x3d,
    0x3b, 0xb4, 0xfa, 0xbe, 0x5a, 0xe2, 0xfe, 0xbd,
    0x4d, 0x62, 0xdf, 0x3d, 0x9f, 0x28, 0x3c, 0x3e,
    0x3b, 0x51, 0x76, 0xbe, 0xee, 0x51, 0xa7, 0xbe,
    0xe1, 0xa8, 0x1a, 0xbe, 0xf3, 0x0d, 0x3f, 0xbd,
    0x6f, 0x49, 0x4e, 0x3f, 0xef, 0x36, 0x67, 0xbe,
    0xe7, 0xe4, 0xab, 0x3e, 0xa9, 0x64, 0x91, 0x3e,
    0x86, 0x57, 0x68, 0xbe, 0x12, 0xb0, 0x8c, 0x3e,
    0xe8, 0x45, 0x38, 0xbd, 0x3a, 0xd8, 0x23, 0xbe,
    0xad, 0x3f, 0xb0, 0xbe, 0x95, 0xb3, 0x55, 0x3e,
    0x88, 0x98, 0xab, 0xbe, 0x59, 0xf8, 0xa9, 0x3e,
    0xd2, 0x6f, 0x94, 0xbe, 0xc9, 0xd4, 0x74, 0x3d,
    0x3a, 0x43, 0xf4, 0xbd, 0x7e, 0xd6, 0x3d, 0x3e,
    0xd7, 0x8d, 0x8e, 0x3e, 0xf0, 0xa0, 0x42, 0xbe,
    0xd8, 0x3e, 0xc5, 0x3d, 0x4f, 0x9e, 0x2a, 0xbf,
    0xb0, 0x04, 0x85, 0xbe, 0x30, 0xf1, 0xce, 0xbd,
    0x55, 0xaa, 0x8f, 0x3e, 0x82, 0x55, 0x66, 0x3e,
    0x29, 0x2e, 0xf3, 0x3d, 0xe0, 0x73, 0xf9, 0xbc,
    0x75, 0x2c, 0xbb, 0xbd, 0x4c, 0x4a, 0x03, 0xbe,
    0x1e, 0x58, 0xb2, 0x3e, 0x27, 0x1e, 0x95, 0x3e,
    0xef, 0x89, 0xd8, 0x3c, 0x5a, 0xf3, 0x81, 0xbd,
    0x92, 0xd4, 0x6d, 0xbf, 0xc3, 0xb0, 0x8c, 0x3e,
    0xa2, 0x67, 0x0b, 0xbe, 0x7d, 0xd4, 0x6b, 0xbe,
    0x6a, 0x69, 0x37, 0x3e, 0x98, 0x79, 0x69, 0x3e,
    0x56, 0xb0, 0x41, 0xbe, 0x44, 0x4f, 0xb9, 0x3d,
    0x9a, 0x3f, 0x8c, 0xbe, 0xca, 0x44, 0xcf, 0xbd,
    0xc9, 0x8d, 0x89, 0xbe, 0x08, 0x87, 0x9a, 0xbe,
    0xe4, 0x73, 0x19, 0xbf, 0xb5, 0xf1, 0x37, 0xbe,
    0xa7, 0xb6, 0xca, 0xbc, 0x95, 0xc0, 0x31, 0xbd,
    0xe7, 0x84, 0x86, 0xbe, 0x15, 0x00, 0x37, 0xbf,
    0x2d, 0xa8, 0x98, 0x3e, 0x6d, 0xe6, 0x90, 0xbe,
    0xcd, 0x84, 0x45, 0x3d, 0xc9, 0x22, 0xac, 0x3e,
    0xc5, 0x24, 0xdc, 0xbc, 0x0b, 0x0e, 0x26, 0xbe,
    0xdb, 0x11, 0x11, 0x3e, 0x51, 0x14, 0x48, 0xbe,
    0xa5, 0xb8, 0x57, 0x3e, 0x3a, 0xe5, 0xf6, 0x3d,
    0x04, 0x61, 0xb5, 0x3e, 0xab, 0x53, 0xf5, 0x3d,
    0xd5, 0xae, 0xc2, 0x3e, 0x56, 0x08, 0xe3, 0x3e,
    0x73, 0x38, 0x3c, 0xbf, 0x1e, 0xd7, 0x5e, 0x3e,
    0xea, 0xf5, 0x14, 0xbe, 0xea, 0xe6, 0x58, 0x3e,
    0x80, 0xdb, 0xfb, 0x3b, 0x8d, 0x3c, 0x16, 0xbe,
    0x3e, 0x80, 0x97, 0xbe, 0x6e, 0x3c, 0x5b, 0x3e,
    0x88, 0x38, 0x19, 0x3d, 0xed, 0x39, 0x25, 0xbd,
    0x08, 0x6e, 0x7d, 0xbd, 0x5e, 0x1d, 0x77, 0x3e,
    0x00, 0x00, 0x06, 0x00, 0x08, 0x00, 0x04, 0x00,
    0x06, 0x00, 0x00, 0x00, 0x04, 0x00, 0x00, 0x00,
    0x40, 0x00, 0x00, 0x00, 0x0f, 0x98, 0x23, 0x3f,
    0xea, 0xa6, 0x45, 0x3f, 0x0a, 0x40, 0x95, 0x3e,
    0x7c, 0xe9, 0x38, 0x3f, 0x0d, 0xd8, 0x8e, 0xbf,
    0x26, 0x0a, 0x55, 0x3e, 0xcc, 0xc8, 0x79, 0x3e,
    0x03, 0xf9, 0x91, 0x3e, 0xde, 0xe2, 0x42, 0xbf,
    0xc8, 0x4c, 0x06, 0xbf, 0x3d, 0xf3, 0x85, 0x3f,
    0x56, 0xbc, 0x96, 0x3d, 0xa3, 0x03, 0x9e, 0xbe,
    0x81, 0xc6, 0xf6, 0x3e, 0x95, 0x9b, 0xe1, 0xbe,
    0x9a, 0x53, 0x5e, 0x3f, 0x28, 0xfb, 0xff, 0xff,
    0x2c, 0xfb, 0xff, 0xff, 0x0f, 0x00, 0x00, 0x00,
    0x4d, 0x4c, 0x49, 0x52, 0x20, 0x43, 0x6f, 0x6e,
    0x76, 0x65, 0x72, 0x74, 0x65, 0x64, 0x2e, 0x00,
    0x01, 0x00, 0x00, 0x00, 0x14, 0x00, 0x00, 0x00,
    0x00, 0x00, 0x0e, 0x00, 0x18, 0x00, 0x14, 0x00,
    0x10, 0x00, 0x0c, 0x00, 0x08, 0x00, 0x04, 0x00,
    0x0e, 0x00, 0x00, 0x00, 0x14, 0x00, 0x00, 0x00,
    0x1c, 0x00, 0x00, 0x00, 0xd8, 0x00, 0x00, 0x00,
    0xdc, 0x00, 0x00, 0x00, 0xe0, 0x00, 0x00, 0x00,
    0x04, 0x00, 0x00, 0x00, 0x6d, 0x61, 0x69, 0x6e,
    0x00, 0x00, 0x00, 0x00, 0x03, 0x00, 0x00, 0x00,
    0x80, 0x00, 0x00, 0x00, 0x38, 0x00, 0x00, 0x00,
    0x04, 0x00, 0x00, 0x00, 0x9a, 0xff, 0xff, 0xff,
    0x10, 0x00, 0x00, 0x00, 0x00, 0x00, 0x00, 0x08,
    0x0c, 0x00, 0x00, 0x00, 0x10, 0x00, 0x00, 0x00,
    0xa4, 0xfb, 0xff, 0xff, 0x01, 0x00, 0x00, 0x00,
    0x09, 0x00, 0x00, 0x00, 0x03, 0x00, 0x00, 0x00,
    0x08, 0x00, 0x00, 0x00, 0x01, 0x00, 0x00, 0x00,
    0x03, 0x00, 0x00, 0x00, 0xca, 0xff, 0xff, 0xff,
    0x10, 0x00, 0x00, 0x00, 0x00, 0x00, 0x00, 0x08,
    0x10, 0x00, 0x00, 0x00, 0x14, 0x00, 0x00, 0x00,
    0xba, 0xff, 0xff, 0xff, 0x00, 0x00, 0x00, 0x01,
    0x01, 0x00, 0x00, 0x00, 0x08, 0x00, 0x00, 0x00,
    0x03, 0x00, 0x00, 0x00, 0x07, 0x00, 0x00, 0x00,
    0x02, 0x00, 0x00, 0x00, 0x04, 0x00, 0x00, 0x00,
    0x00, 0x00, 0x0e, 0x00, 0x16, 0x00, 0x00, 0x00,
    0x10, 0x00, 0x0c, 0x00, 0x0b, 0x00, 0x04, 0x00,
    0x0e, 0x00, 0x00, 0x00, 0x18, 0x00, 0x00, 0x00,
    0x00, 0x00, 0x00, 0x08, 0x18, 0x00, 0x00, 0x00,
    0x1c, 0x00, 0x00, 0x00, 0x00, 0x00, 0x06, 0x00,
    0x08, 0x00, 0x07, 0x00, 0x06, 0x00, 0x00, 0x00,
    0x00, 0x00, 0x00, 0x01, 0x01, 0x00, 0x00, 0x00,
    0x07, 0x00, 0x00, 0x00, 0x03, 0x00, 0x00, 0x00,
    0x00, 0x00, 0x00, 0x00, 0x06, 0x00, 0x00, 0x00,
    0x05, 0x00, 0x00, 0x00, 0x01, 0x00, 0x00, 0x00,
    0x09, 0x00, 0x00, 0x00, 0x01, 0x00, 0x00, 0x00,
    0x00, 0x00, 0x00, 0x00, 0x0a, 0x00, 0x00, 0x00,
    0x84, 0x03, 0x00, 0x00, 0x2c, 0x03, 0x00, 0x00,
    0xd4, 0x02, 0x00, 0x00, 0x98, 0x02, 0x00, 0x00,
    0x5c, 0x02, 0x00, 0x00, 0xfc, 0x01, 0x00, 0x00,
    0xa8, 0x01, 0x00, 0x00, 0x04, 0x01, 0x00, 0x00,
    0x60, 0x00, 0x00, 0x00, 0x04, 0x00, 0x00, 0x00,
    0xba, 0xfc, 0xff, 0xff, 0x00, 0x00, 0x00, 0x01,
    0x14, 0x00, 0x00, 0x00, 0x1c, 0x00, 0x00, 0x00,
    0x1c, 0x00, 0x00, 0x00, 0x0a, 0x00, 0x00, 0x00,
    0x34, 0x00, 0x00, 0x00, 0x02, 0x00, 0x00, 0x00,
    0xff, 0xff, 0xff, 0xff, 0x01, 0x00, 0x00, 0x00,
    0xa4, 0xfc, 0xff, 0xff, 0x1b, 0x00, 0x00, 0x00,
    0x53, 0x74, 0x61, 0x74, 0x65, 0x66, 0x75, 0x6c,
    0x50, 0x61, 0x72, 0x74, 0x69, 0x74, 0x69, 0x6f,
    0x6e, 0x65, 0x64, 0x43, 0x61, 0x6c, 0x6c, 0x5f,
    0x31, 0x3a, 0x30, 0x00, 0x02, 0x00, 0x00, 0x00,
    0x01, 0x00, 0x00, 0x00, 0x01, 0x00, 0x00, 0x00,
    0x12, 0xfd, 0xff, 0xff, 0x00, 0x00, 0x00, 0x01,
    0x14, 0x00, 0x00, 0x00, 0x1c, 0x00, 0x00, 0x00,
    0x1c, 0x00, 0x00, 0x00, 0x09, 0x00, 0x00, 0x00,
    0x7c, 0x00, 0x00, 0x00, 0x02, 0x00, 0x00, 0x00,
    0xff, 0xff, 0xff, 0xff, 0x10, 0x00, 0x00, 0x00,
    0xfc, 0xfc, 0xff, 0xff, 0x61, 0x00, 0x00, 0x00,
    0x73, 0x65, 0x71, 0x75, 0x65, 0x6e, 0x74, 0x69,
    0x61, 0x6c, 0x5f, 0x35, 0x5f, 0x31, 0x2f, 0x64,
    0x65, 0x6e, 0x73, 0x65, 0x5f, 0x31, 0x36, 0x5f,
    0x31, 0x2f, 0x4d, 0x61, 0x74, 0x4d, 0x75, 0x6c,
    0x3b, 0x73, 0x65, 0x71, 0x75, 0x65, 0x6e, 0x74,
    0x69, 0x61, 0x6c, 0x5f, 0x35, 0x5f, 0x31, 0x2f,
    0x64, 0x65, 0x6e, 0x73, 0x65, 0x5f, 0x31, 0x36,
    0x5f, 0x31, 0x2f, 0x52, 0x65, 0x6c, 0x75, 0x3b,
    0x73, 0x65, 0x71, 0x75, 0x65, 0x6e, 0x74, 0x69,
    0x61, 0x6c, 0x5f, 0x35, 0x5f, 0x31, 0x2f, 0x64,
    0x65, 0x6e, 0x73, 0x65, 0x5f, 0x31, 0x36, 0x5f,
    0x31, 0x2f, 0x42, 0x69, 0x61, 0x73, 0x41, 0x64,
    0x64, 0x00, 0x00, 0x00, 0x02, 0x00, 0x00, 0x00,
    0x01, 0x00, 0x00, 0x00, 0x10, 0x00, 0x00, 0x00,
    0xb2, 0xfd, 0xff, 0xff, 0x00, 0x00, 0x00, 0x01,
    0x14, 0x00, 0x00, 0x00, 0x1c, 0x00, 0x00, 0x00,
    0x1c, 0x00, 0x00, 0x00, 0x08, 0x00, 0x00, 0x00,
    0x7c, 0x00, 0x00, 0x00, 0x02, 0x00, 0x00, 0x00,
    0xff, 0xff, 0xff, 0xff, 0x20, 0x00, 0x00, 0x00,
    0x9c, 0xfd, 0xff, 0xff, 0x61, 0x00, 0x00, 0x00,
    0x73, 0x65, 0x71, 0x75, 0x65, 0x6e, 0x74, 0x69,
    0x61, 0x6c, 0x5f, 0x35, 0x5f, 0x31, 0x2f, 0x64,
    0x65, 0x6e, 0x73, 0x65, 0x5f, 0x31, 0x35, 0x5f,
    0x31, 0x2f, 0x4d, 0x61, 0x74, 0x4d, 0x75, 0x6c,
    0x3b, 0x73, 0x65, 0x71, 0x75, 0x65, 0x6e, 0x74,
    0x69, 0x61, 0x6c, 0x5f, 0x35, 0x5f, 0x31, 0x2f,
    0x64, 0x65, 0x6e, 0x73, 0x65, 0x5f, 0x31, 0x35,
    0x5f, 0x31, 0x2f, 0x52, 0x65, 0x6c, 0x75, 0x3b,
    0x73, 0x65, 0x71, 0x75, 0x65, 0x6e, 0x74, 0x69,
    0x61, 0x6c, 0x5f, 0x35, 0x5f, 0x31, 0x2f, 0x64,
    0x65, 0x6e, 0x73, 0x65, 0x5f, 0x31, 0x35, 0x5f,
    0x31, 0x2f, 0x42, 0x69, 0x61, 0x73, 0x41, 0x64,
    0x64, 0x00, 0x00, 0x00, 0x02, 0x00, 0x00, 0x00,
    0x01, 0x00, 0x00, 0x00, 0x20, 0x00, 0x00, 0x00,
    0xa6, 0xfe, 0xff, 0xff, 0x00, 0x00, 0x00, 0x01,
    0x10, 0x00, 0x00, 0x00, 0x10, 0x00, 0x00, 0x00,
    0x07, 0x00, 0x00, 0x00, 0x30, 0x00, 0x00, 0x00,
    0x2c, 0xfe, 0xff, 0xff, 0x20, 0x00, 0x00, 0x00,
    0x73, 0x65, 0x71, 0x75, 0x65, 0x6e, 0x74, 0x69,
    0x61, 0x6c, 0x5f, 0x35, 0x5f, 0x31, 0x2f, 0x64,
    0x65, 0x6e, 0x73, 0x65, 0x5f, 0x31, 0x35, 0x5f,
    0x31, 0x2f, 0x4d, 0x61, 0x74, 0x4d, 0x75, 0x6c,
    0x00, 0x00, 0x00, 0x00, 0x02, 0x00, 0x00, 0x00,
    0x20, 0x00, 0x00, 0x00, 0x01, 0x00, 0x00, 0x00,
    0xf6, 0xfe, 0xff, 0xff, 0x00, 0x00, 0x00, 0x01,
    0x10, 0x00, 0x00, 0x00, 0x10, 0x00, 0x00, 0x00,
    0x06, 0x00, 0x00, 0x00, 0x40, 0x00, 0x00, 0x00,
    0x7c, 0xfe, 0xff, 0xff, 0x30, 0x00, 0x00, 0x00,
    0x73, 0x65, 0x71, 0x75, 0x65, 0x6e, 0x74, 0x69,
    0x61, 0x6c, 0x5f, 0x35, 0x5f, 0x31, 0x2f, 0x64,
    0x65, 0x6e, 0x73, 0x65, 0x5f, 0x31, 0x35, 0x5f,
    0x31, 0x2f, 0x42, 0x69, 0x61, 0x73, 0x41, 0x64,
    0x64, 0x2f, 0x52, 0x65, 0x61, 0x64, 0x56, 0x61,
    0x72, 0x69, 0x61, 0x62, 0x6c, 0x65, 0x4f, 0x70,
    0x00, 0x00, 0x00, 0x00, 0x01, 0x00, 0x00, 0x00,
    0x20, 0x00, 0x00, 0x00, 0x52, 0xff, 0xff, 0xff,
    0x00, 0x00, 0x00, 0x01, 0x10, 0x00, 0x00, 0x00,
    0x10, 0x00, 0x00, 0x00, 0x05, 0x00, 0x00, 0x00,
    0x1c, 0x00, 0x00, 0x00, 0xd8, 0xfe, 0xff, 0xff,
    0x0f, 0x00, 0x00, 0x00, 0x61, 0x72, 0x69, 0x74,
    0x68, 0x2e, 0x63, 0x6f, 0x6e, 0x73, 0x74, 0x61,
    0x6e, 0x74, 0x33, 0x00, 0x01, 0x00, 0x00, 0x00,
    0x10, 0x00, 0x00, 0x00, 0x8a, 0xff, 0xff, 0xff,
    0x00, 0x00, 0x00, 0x01, 0x10, 0x00, 0x00, 0x00,
    0x10, 0x00, 0x00, 0x00, 0x04, 0x00, 0x00, 0x00,
    0x1c, 0x00, 0x00, 0x00, 0x10, 0xff, 0xff, 0xff,
    0x0f, 0x00, 0x00, 0x00, 0x61, 0x72, 0x69, 0x74,
    0x68, 0x2e, 0x63, 0x6f, 0x6e, 0x73, 0x74, 0x61,
    0x6e, 0x74, 0x32, 0x00, 0x01, 0x00, 0x00, 0x00,
    0x01, 0x00, 0x00, 0x00, 0xc2, 0xff, 0xff, 0xff,
    0x00, 0x00, 0x00, 0x01, 0x10, 0x00, 0x00, 0x00,
    0x10, 0x00, 0x00, 0x00, 0x03, 0x00, 0x00, 0x00,
    0x1c, 0x00, 0x00, 0x00, 0x48, 0xff, 0xff, 0xff,
    0x0f, 0x00, 0x00, 0x00, 0x61, 0x72, 0x69, 0x74,
    0x68, 0x2e, 0x63, 0x6f, 0x6e, 0x73, 0x74, 0x61,
    0x6e, 0x74, 0x31, 0x00, 0x02, 0x00, 0x00, 0x00,
    0x10, 0x00, 0x00, 0x00, 0x20, 0x00, 0x00, 0x00,
    0x00, 0x00, 0x16, 0x00, 0x18, 0x00, 0x14, 0x00,
    0x00, 0x00, 0x10, 0x00, 0x0c, 0x00, 0x08, 0x00,
    0x00, 0x00, 0x00, 0x00, 0x00, 0x00, 0x07, 0x00,
    0x16, 0x00, 0x00, 0x00, 0x00, 0x00, 0x00, 0x01,
    0x10, 0x00, 0x00, 0x00, 0x10, 0x00, 0x00, 0x00,
    0x02, 0x00, 0x00, 0x00, 0x1c, 0x00, 0x00, 0x00,
    0x9c, 0xff, 0xff, 0xff, 0x0e, 0x00, 0x00, 0x00,
    0x61, 0x72, 0x69, 0x74, 0x68, 0x2e, 0x63, 0x6f,
    0x6e, 0x73, 0x74, 0x61, 0x6e, 0x74, 0x00, 0x00,
    0x02, 0x00, 0x00, 0x00, 0x01, 0x00, 0x00, 0x00,
    0x10, 0x00, 0x00, 0x00, 0x00, 0x00, 0x16, 0x00,
    0x1c, 0x00, 0x18, 0x00, 0x00, 0x00, 0x14, 0x00,
    0x10, 0x00, 0x0c, 0x00, 0x00, 0x00, 0x00, 0x00,
    0x08, 0x00, 0x07, 0x00, 0x16, 0x00, 0x00, 0x00,
    0x00, 0x00, 0x00, 0x01, 0x14, 0x00, 0x00, 0x00,
    0x20, 0x00, 0x00, 0x00, 0x20, 0x00, 0x00, 0x00,
    0x01, 0x00, 0x00, 0x00, 0x40, 0x00, 0x00, 0x00,
    0x02, 0x00, 0x00, 0x00, 0xff, 0xff, 0xff, 0xff,
    0x01, 0x00, 0x00, 0x00, 0x04, 0x00, 0x04, 0x00,
    0x04, 0x00, 0x00, 0x00, 0x21, 0x00, 0x00, 0x00,
    0x73, 0x65, 0x72, 0x76, 0x69, 0x6e, 0x67, 0x5f,
    0x64, 0x65, 0x66, 0x61, 0x75, 0x6c, 0x74, 0x5f,
    0x6b, 0x65, 0x72, 0x61, 0x73, 0x5f, 0x74, 0x65,
    0x6e, 0x73, 0x6f, 0x72, 0x5f, 0x32, 0x30, 0x3a,
    0x30, 0x00, 0x00, 0x00, 0x02, 0x00, 0x00, 0x00,
    0x01, 0x00, 0x00, 0x00, 0x01, 0x00, 0x00, 0x00,
    0x01, 0x00, 0x00, 0x00, 0x10, 0x00, 0x00, 0x00,
    0x0c, 0x00, 0x0c, 0x00, 0x0b, 0x00, 0x00, 0x00,
    0x00, 0x00, 0x04, 0x00, 0x0c, 0x00, 0x00, 0x00,
    0x09, 0x00, 0x00, 0x00, 0x00, 0x00, 0x00, 0x09
};

#endif // SINE_MODEL_H
